<unk>	0
<s>	0
</s>	0
▁t	-0
in	-1
▁a	-2
he	-3
re	-4
on	-5
▁o	-6
at	-7
▁the	-8
er	-9
en	-10
▁c	-11
▁s	-12
es	-13
ed	-14
▁in	-15
▁p	-16
▁of	-17
it	-18
ion	-19
an	-20
al	-21
▁f	-22
or	-23
▁an	-24
▁w	-25
ar	-26
▁d	-27
▁and	-28
is	-29
▁m	-30
▁2	-31
▁b	-32
ing	-33
ro	-34
as	-35
▁re	-36
ent	-37
▁to	-38
▁20	-39
ic	-40
ct	-41
om	-42
il	-43
▁e	-44
le	-45
ur	-46
▁n	-47
ation	-48
▁|	-49
▁(	-50
st	-51
et	-52
▁1	-53
lo	-54
un	-55
▁th	-56
▁201	-57
ce	-58
ly	-59
ve	-60
im	-61
▁for	-62
▁g	-63
▁h	-64
ment	-65
▁com	-66
ig	-67
ol	-68
us	-69
ot	-70
id	-71
▁$	-72
ut	-73
▁de	-74
ul	-75
▁con	-76
▁st	-77
▁as	-78
ch	-79
▁pro	-80
ate	-81
ill	-82
▁T	-83
▁we	-84
▁l	-85
ra	-86
▁ex	-87
▁is	-88
ies	-89
▁A	-90
▁comp	-91
▁200	-92
se	-93
qu	-94
▁on	-95
ated	-96
ab	-97
▁inc	-98
▁be	-99
iv	-100
▁that	-101
ith	-102
▁3	-103
▁r	-104
▁S	-105
▁al	-106
▁se	-107
red	-108
▁v	-109
ge	-110
▁with	-111
ay	-112
um	-113
ci	-114
her	-115
ity	-116
ect	-117
illion	-118
res	-119
▁C	-120
▁wh	-121
ter	-122
am	-123
ir	-124
▁was	-125
te	-126
ain	-127
▁P	-128
ue	-129
ts	-130
▁by	-131
ck	-132
00	-133
ive	-134
▁are	-135
▁un	-136
ber	-137
▁R	-138
▁I	-139
▁not	-140
▁or	-141
est	-142
▁B	-143
if	-144
▁,	-145
▁su	-146
od	-147
▁million	-148
ver	-149
el	-150
▁exp	-151
▁co	-152
rom	-153
▁our	-154
ase	-155
pp	-156
os	-157
▁The	-158
ad	-159
ran	-160
▁gen	-161
ri	-162
ments	-163
end	-164
▁at	-165
ition	-166
ort	-167
▁lo	-168
▁per	-169
▁from	-170
ow	-171
▁y	-172
ess	-173
act	-174
iz	-175
▁M	-176
▁res	-177
ud	-178
▁.	-179
ist	-180
▁D	-181
oun	-182
▁sh	-183
able	-184
ers	-185
▁ac	-186
em	-187
ear	-188
▁ch	-189
ure	-190
ations	-191
ant	-192
ther	-193
▁were	-194
).	-195
▁it	-196
any	-197
per	-198
▁ass	-199
▁F	-200
ome	-201
▁W	-202
▁cont	-203
and	-204
▁$1	-205
▁pr	-206
ities	-207
age	-208
igh	-209
ff	-210
mber	-211
du	-212
ac	-213
▁rec	-214
ren	-215
▁19	-216
pt	-217
ign	-218
▁us	-219
▁G	-220
▁ad	-221
th	-222
ens	-223
▁sp	-224
▁other	-225
ore	-226
ased	-227
▁net	-228
▁am	-229
ance	-230
ap	-231
▁company	-232
▁cons	-233
ates	-234
ich	-235
▁year	-236
▁4	-237
▁im	-238
ph	-239
▁pl	-240
▁H	-241
ction	-242
der	-243
ial	-244
▁comm	-245
lud	-246
▁31	-247
low	-248
▁le	-249
rans	-250
▁2019	-251
▁L	-252
▁app	-253
▁rep	-254
▁this	-255
art	-256
▁N	-257
cember	-258
▁december	-259
io	-260
▁5	-261
▁ne	-262
▁trans	-263
log	-264
ru	-265
▁inv	-266
ary	-267
ax	-268
▁he	-269
ave	-270
%)	-271
0.	-272
▁which	-273
up	-274
▁=	-275
ock	-276
▁incre	-277
ib	-278
▁ind	-279
▁J	-280
▁imp	-281
▁fin	-282
▁what	-283
▁oper	-284
ating	-285
ions	-286
▁have	-287
erv	-288
ust	-289
▁rel	-290
▁sy	-291
dition	-292
▁these	-293
▁val	-294
op	-295
▁act	-296
gra	-297
rest	-298
ative	-299
▁includ	-300
ll	-301
ets	-302
ount	-303
ard	-304
for	-305
▁E	-306
tal	-307
ized	-308
▁inte	-309
ory	-310
▁mar	-311
ug	-312
cial	-313
ine	-314
uring	-315
ges	-316
ree	-317
▁under	-318
▁sub	-319
ia	-320
▁ag	-321
cent	-322
ak	-323
▁acc	-324
ical	-325
▁In	-326
▁-	-327
ong	-328
tain	-329
2.	-330
ence	-331
ire	-332
▁stock	-333
ven	-334
ding	-335
ss	-336
▁appro	-337
▁int	-338
▁cap	-339
▁pur	-340
▁resul	-341
air	-342
▁total	-343
ice	-344
▁k	-345
ange	-346
▁31,	-347
ell	-348
▁et	-349
rib	-350
▁2014	-351
ash	-352
▁interest	-353
▁sal	-354
▁sec	-355
▁cost	-356
so	-357
▁qu	-358
ugh	-359
ide	-360
▁dis	-361
hen	-362
▁199	-363
ility	-364
form	-365
yp	-366
ight	-367
ip	-368
▁(1	-369
▁all	-370
are	-371
enc	-372
erm	-373
▁finan	-374
▁O	-375
▁j	-376
ital	-377
▁state	-378
3.	-379
sion	-380
stem	-381
NA	-382
ors	-383
▁due	-384
▁notes	-385
ents	-386
ffect	-387
ian	-388
▁li	-389
▁value	-390
av	-391
▁sign	-392
ach	-393
ily	-394
uld	-395
▁activ	-396
▁6	-397
▁produ	-398
▁system	-399
▁addition	-400
ately	-401
▁cash	-402
▁invest	-403
▁tax	-404
▁prote	-405
),	-406
ual	-407
▁capital	-408
7.	-409
fe	-410
erg	-411
cle	-412
all	-413
▁12	-414
ack	-415
▁ent	-416
our	-417
01	-418
▁9	-419
▁ab	-420
▁cor	-421
▁dec	-422
▁during	-423
▁part	-424
▁pre	-425
▁no	-426
ep	-427
▁mat	-428
▁ob	-429
▁8	-430
og	-431
▁tim	-432
ans	-433
su	-434
▁over	-435
▁10	-436
▁cl	-437
▁financial	-438
cts	-439
▁end	-440
ast	-441
▁pay	-442
ons	-443
bin	-444
out	-445
▁its	-446
▁cur	-447
ted	-448
xim	-449
aten	-450
▁may	-451
▁purch	-452
▁man	-453
▁gro	-454
▁years	-455
▁operating	-456
▁K	-457
lic	-458
olog	-459
▁non	-460
▁reven	-461
fer	-462
redit	-463
▁@	-464
sis	-465
▁fun	-466
▁sales	-467
▁β	-468
feren	-469
▁det	-470
▁approxim	-471
ond	-472
▁mark	-473
▁comple	-474
▁protein	-475
▁ph	-476
▁assets	-477
▁income	-478
4.	-479
▁fol	-480
▁en	-481
▁common	-482
atenin	-483
ied	-484
▁po	-485
▁reg	-486
▁approximately	-487
5.	-488
▁out	-489
ribut	-490
ite	-491
cess	-492
eral	-493
igure	-494
▁acqu	-495
▁ar	-496
old	-497
▁credit	-498
▁V	-499
▁equ	-500
1.	-501
▁7	-502
ie	-503
▁do	-504
▁ele	-505
▁follow	-506
▁U	-507
ous	-508
▁related	-509
ord	-510
▁also	-511
own	-512
xin	-513
ene	-514
iod	-515
▁secur	-516
fit	-517
▁Th	-518
▁div	-519
ms	-520
ergy	-521
ucle	-522
▁prim	-523
▁period	-524
▁mo	-525
ings	-526
catenin	-527
▁rate	-528
ass	-529
▁pos	-530
arily	-531
ected	-532
50	-533
ric	-534
▁spe	-535
▁prov	-536
▁genes	-537
ub	-538
ular	-539
ile	-540
▁disc	-541
ame	-542
▁des	-543
▁has	-544
rough	-545
▁2003	-546
cip	-547
▁$2	-548
ertain	-549
we	-550
ork	-551
▁increase	-552
ail	-553
ases	-554
wo	-555
▁me	-556
ific	-557
▁than	-558
ilities	-559
▁costs	-560
ited	-561
▁resp	-562
ry	-563
▁fe	-564
ices	-565
▁go	-566
▁var	-567
▁2002	-568
▁axin	-569
▁can	-570
▁tra	-571
▁2015	-572
por	-573
▁curren	-574
▁billion	-575
▁effect	-576
ata	-577
ared	-578
resent	-579
▁est	-580
▁been	-581
▁used	-582
▁(2	-583
▁inter	-584
▁amount	-585
▁te	-586
▁2013	-587
▁ret	-588
aly	-589
les	-590
▁each	-591
▁loss	-592
6.	-593
▁any	-594
▁more	-595
▁'	-596
ants	-597
▁low	-598
SS	-599
▁sequ	-600
olid	-601
centr	-602
▁certain	-603
▁through	-604
▁market	-605
▁ro	-606
▁dif	-607
nt	-608
iness	-609
ose	-610
way	-611
▁deb	-612
▁progra	-613
▁two	-614
arter	-615
▁rem	-616
ization	-617
usiness	-618
▁bet	-619
▁fac	-620
▁primarily	-621
ious	-622
▁dep	-623
▁2012	-624
-@	-625
ace	-626
▁@-@	-627
▁par	-628
umber	-629
▁business	-630
ath	-631
ues	-632
▁up	-633
▁202	-634
▁2011	-635
cy	-636
▁into	-637
▁revenue	-638
▁"	-639
vel	-640
▁their	-641
▁St	-642
stru	-643
▁will	-644
▁such	-645
▁using	-646
▁expres	-647
▁had	-648
▁one	-649
▁char	-650
▁change	-651
▁consolid	-652
▁$3	-653
▁sc	-654
▁ext	-655
▁debt	-656
▁fair	-657
ould	-658
ident	-659
▁dist	-660
▁concentr	-661
fic	-662
▁clo	-663
▁share	-664
lop	-665
▁rates	-666
8.	-667
▁—	-668
mer	-669
ont	-670
▁so	-671
ense	-672
ween	-673
▁consolidated	-674
ption	-675
velop	-676
ired	-677
ject	-678
ced	-679
ible	-680
olum	-681
▁cell	-682
▁serv	-683
ulation	-684
bination	-685
▁following	-686
▁supp	-687
▁agree	-688
▁between	-689
▁term	-690
▁analy	-691
hed	-692
▁11	-693
de	-694
▁AR	-695
▁fir	-696
acter	-697
ively	-698
▁quarter	-699
▁compared	-700
▁ear	-701
▁long	-702
▁time	-703
ke	-704
etic	-705
ag	-706
000	-707
▁issu	-708
▁additional	-709
▁data	-710
▁high	-711
▁requ	-712
▁decre	-713
▁entergy	-714
ces	-715
▁new	-716
▁rece	-717
▁develop	-718
▁results	-719
▁increased	-720
ang	-721
▁group	-722
▁price	-723
▁liab	-724
ational	-725
▁respect	-726
ex	-727
▁percent	-728
NO	-729
term	-730
▁gene	-731
75	-732
▁result	-733
▁18	-734
▁but	-735
▁ins	-736
▁number	-737
fter	-738
▁mod	-739
▁2016	-740
▁first	-741
▁differen	-742
▁only	-743
dation	-744
ulated	-745
▁level	-746
▁0.	-747
▁ended	-748
ogn	-749
ved	-750
ides	-751
irect	-752
ucleot	-753
▁securities	-754
urn	-755
stand	-756
▁millions	-757
▁pa	-758
otyp	-759
▁recom	-760
▁including	-761
ld	-762
iol	-763
ares	-764
▁statements	-765
gan	-766
ult	-767
ustom	-768
amer	-769
▁off	-770
▁custom	-771
▁record	-772
▁bu	-773
▁loc	-774
▁We	-775
▁RSS	-776
▁signal	-777
▁ev	-778
▁fut	-779
▁fact	-780
▁divid	-781
▁estim	-782
▁would	-783
pl	-784
ne	-785
▁This	-786
▁based	-787
▁activities	-788
▁expression	-789
sh	-790
ffic	-791
▁mut	-792
▁there	-793
▁systems	-794
athway	-795
▁acquis	-796
standing	-797
▁perform	-798
ix	-799
▁15	-800
▁col	-801
ified	-802
ounts	-803
▁they	-804
▁complex	-805
▁function	-806
ds	-807
▁contra	-808
isk	-809
tle	-810
▁An	-811
ensus	-812
▁2009	-813
▁bene	-814
▁purchase	-815
▁acquisition	-816
hy	-817
ark	-818
▁Ch	-819
anges	-820
henotyp	-821
▁manage	-822
gradation	-823
▁products	-824
lig	-825
asm	-826
ward	-827
▁2008	-828
osph	-829
▁fal	-830
▁shares	-831
formation	-832
▁signific	-833
30	-834
▁RNA	-835
▁aut	-836
▁def	-837
▁2001	-838
▁2017	-839
▁direct	-840
▁operations	-841
..	-842
▁indic	-843
▁future	-844
▁benefit	-845
25	-846
ery	-847
ally	-848
▁ann	-849
▁hig	-850
▁dividend	-851
▁phenotyp	-852
chn	-853
ures	-854
▁bot	-855
▁set	-856
aining	-857
verage	-858
▁report	-859
▁account	-860
▁significant	-861
lation	-862
ciation	-863
▁included	-864
cted	-865
rain	-866
▁car	-867
▁whe	-868
ffici	-869
▁2007	-870
▁work	-871
▁Figure	-872
▁recogn	-873
▁degradation	-874
ou	-875
und	-876
▁note	-877
▁exper	-878
▁analysis	-879
▁represent	-880
ise	-881
▁pathway	-882
▁position	-883
45	-884
ild	-885
▁risk	-886
▁subs	-887
▁vari	-888
▁information	-889
ives	-890
▁mem	-891
▁changes	-892
68	-893
▁$5	-894
▁pe	-895
▁met	-896
▁agreement	-897
ank	-898
gin	-899
▁outstanding	-900
▁recombination	-901
cific	-902
▁proteins	-903
15	-904
ade	-905
▁exch	-906
▁pres	-907
▁higher	-908
▁development	-909
▁30	-910
atory	-911
▁after	-912
▁could	-913
▁)	-914
▁sim	-915
▁fore	-916
▁spac	-917
ferred	-918
pe	-919
its	-920
one	-921
▁13	-922
▁Un	-923
▁min	-924
▁volum	-925
▁corpor	-926
▁falcip	-927
33	-928
▁fl	-929
ined	-930
▁2006	-931
▁2010	-932
▁well	-933
▁expens	-934
▁process	-935
ake	-936
aus	-937
ower	-938
▁ant	-939
▁bec	-940
▁seg	-941
▁exchange	-942
40	-943
inu	-944
ior	-945
▁cy	-946
▁em	-947
arum	-948
▁redu	-949
actions	-950
▁falciparum	-951
▁management	-952
PC	-953
rit	-954
▁av	-955
ning	-956
▁most	-957
▁equity	-958
ology	-959
▁stud	-960
▁contro	-961
▁condition	-962
▁liabilities	-963
row	-964
olut	-965
ially	-966
meric	-967
▁Americ	-968
▁investment	-969
ages	-970
clud	-971
▁ref	-972
▁2018	-973
▁amort	-974
▁program	-975
idi	-976
erved	-977
▁expense	-978
▁prev	-979
▁experim	-980
85	-981
cri	-982
cur	-983
▁within	-984
med	-985
ater	-986
ever	-987
rior	-988
▁how	-989
man	-990
arch	-991
ound	-992
▁respectively	-993
12	-994
▁both	-995
Figure	-996
▁prices	-997
▁spacer	-998
▁u	-999
isc	-1000
ains	-1001
▁2000	-1002
▁some	-1003
▁design	-1004
▁foreign	-1005
▁subsidi	-1006
int	-1007
irc	-1008
over	-1009
▁bal	-1010
▁sep	-1011
aries	-1012
lated	-1013
▁Biol	-1014
olders	-1015
▁genome	-1016
ays	-1017
lis	-1018
▁APC	-1019
▁bin	-1020
▁coun	-1021
▁main	-1022
▁ident	-1023
▁lower	-1024
▁determ	-1025
▁provid	-1026
▁general	-1027
oci	-1028
ove	-1029
▁(3	-1030
▁100	-1031
▁fam	-1032
▁same	-1033
▁plans	-1034
▁concentration	-1035
arg	-1036
▁str	-1037
ights	-1038
▁class	-1039
▁prior	-1040
▁those	-1041
▁return	-1042
13	-1043
aw	-1044
sed	-1045
▁ra	-1046
▁four	-1047
▁about	-1048
▁depre	-1049
▁regul	-1050
aj	-1051
li	-1052
▁cle	-1053
▁auth	-1054
▁then	-1055
▁expected	-1056
▁distribut	-1057
▁if	-1058
▁when	-1059
ically	-1060
▁avail	-1061
▁three	-1062
▁current	-1063
▁consensus	-1064
10	-1065
49	-1066
hod	-1067
ium	-1068
▁use	-1069
▁port	-1070
▁volume	-1071
▁sequenc	-1072
-3	-1073
20	-1074
ft	-1075
ics	-1076
plo	-1077
▁Ar	-1078
▁Wnt	-1079
▁obs	-1080
▁prof	-1081
▁model	-1082
ough	-1083
▁$1.	-1084
▁back	-1085
▁form	-1086
▁compon	-1087
▁“	-1088
reg	-1089
▁Re	-1090
ones	-1091
tern	-1092
▁date	-1093
▁earn	-1094
▁control	-1095
▁recorded	-1096
▁sequence	-1097
29	-1098
ty	-1099
ulin	-1100
▁DNA	-1101
▁circ	-1102
▁shown	-1103
▁impair	-1104
▁investments	-1105
44	-1106
ob	-1107
pr	-1108
▁;	-1109
▁Y	-1110
▁lim	-1111
endent	-1112
▁rights	-1113
▁expenses	-1114
mb	-1115
son	-1116
▁kn	-1117
▁RNAi	-1118
▁good	-1119
▁less	-1120
▁organ	-1121
▁profit	-1122
▁facility	-1123
▁depreciation	-1124
sc	-1125
hem	-1126
str	-1127
cies	-1128
▁Gen	-1129
▁pop	-1130
▁rat	-1131
▁losses	-1132
▁segment	-1133
▁support	-1134
▁currency	-1135
▁provided	-1136
69	-1137
ceed	-1138
ived	-1139
omes	-1140
ured	-1141
▁sug	-1142
iolog	-1143
▁2022	-1144
ential	-1145
▁discus	-1146
▁impact	-1147
▁average	-1148
▁balance	-1149
▁subsidiaries	-1150
23	-1151
61	-1152
ajor	-1153
ause	-1154
▁flow	-1155
▁rese	-1156
▁show	-1157
▁acquired	-1158
AR	-1159
SK	-1160
▁$7	-1161
crib	-1162
hyth	-1163
▁der	-1164
▁index	-1165
▁march	-1166
▁power	-1167
▁amounts	-1168
AG	-1169
oc	-1170
▁0	-1171
▁med	-1172
▁cells	-1173
▁techn	-1174
▁phosph	-1175
▁activity	-1176
▁previous	-1177
▁purchased	-1178
uel	-1179
just	-1180
orne	-1181
▁made	-1182
▁rest	-1183
alized	-1184
▁const	-1185
▁author	-1186
▁levels	-1187
▁different	-1188
▁impairment	-1189
me	-1190
xt	-1191
set	-1192
▁Dsh	-1193
inued	-1194
▁paid	-1195
▁gener	-1196
▁annual	-1197
0%	-1198
pos	-1199
▁1.	-1200
▁Bl	-1201
ting	-1202
▁dom	-1203
▁you	-1204
adian	-1205
▁1998	-1206
▁ARNO	-1207
▁five	-1208
▁affect	-1209
▁earnings	-1210
amp	-1211
iel	-1212
ince	-1213
sing	-1214
▁ser	-1215
ublic	-1216
▁upon	-1217
▁impro	-1218
▁major	-1219
▁partic	-1220
▁proper	-1221
▁binding	-1222
▁nucleot	-1223
47	-1224
wn	-1225
lec	-1226
uch	-1227
▁As	-1228
▁Pl	-1229
ploy	-1230
▁mon	-1231
▁phy	-1232
logen	-1233
▁consist	-1234
▁payments	-1235
▁available	-1236
▁&	-1237
ves	-1238
▁2005	-1239
▁plan	-1240
action	-1241
tained	-1242
▁commit	-1243
▁issued	-1244
▁states	-1245
ependent	-1246
▁decrease	-1247
▁performance	-1248
19	-1249
87	-1250
oll	-1251
ost	-1252
ron	-1253
fore	-1254
igin	-1255
▁$0.	-1256
▁bas	-1257
▁dem	-1258
▁being	-1259
▁stand	-1260
▁compar	-1261
▁insulin	-1262
▁It	-1263
▁bo	-1264
▁ARF	-1265
▁mer	-1266
▁who	-1267
▁like	-1268
▁assum	-1269
▁clock	-1270
▁mater	-1271
▁matur	-1272
▁where	-1273
▁project	-1274
▁service	-1275
▁programs	-1276
46	-1277
cl	-1278
ism	-1279
▁Com	-1280
▁GSK	-1281
▁her	-1282
ature	-1283
orneo	-1284
▁many	-1285
▁pred	-1286
▁again	-1287
▁oblig	-1288
▁rhyth	-1289
▁second	-1290
▁include	-1291
▁payable	-1292
▁remaining	-1293
▁recognized	-1294
11	-1295
ok	-1296
hib	-1297
▁16	-1298
▁He	-1299
fact	-1300
▁here	-1301
▁meas	-1302
▁adjust	-1303
mun	-1304
▁3.	-1305
▁she	-1306
▁sale	-1307
lecular	-1308
▁offset	-1309
▁origin	-1310
▁genetic	-1311
▁product	-1312
▁contribut	-1313
▁facilities	-1314
▁corporation	-1315
als	-1316
ife	-1317
ood	-1318
▁$6	-1319
▁ID	-1320
ilar	-1321
▁cal	-1322
▁fuel	-1323
cribed	-1324
▁lease	-1325
▁space	-1326
ference	-1327
▁Borneo	-1328
▁associ	-1329
▁instru	-1330
▁present	-1331
▁subject	-1332
▁material	-1333
43	-1334
ded	-1335
iew	-1336
▁17	-1337
▁27	-1338
▁rr	-1339
ands	-1340
▁bor	-1341
▁see	-1342
▁unre	-1343
▁table	-1344
▁concentrations	-1345
anu	-1346
con	-1347
▁$9	-1348
▁1,	-1349
ason	-1350
ency	-1351
▁rev	-1352
lished	-1353
▁asset	-1354
ii	-1355
ky	-1356
▁X	-1357
see	-1358
▁4.	-1359
▁my	-1360
ARNO	-1361
icro	-1362
ines	-1363
omic	-1364
▁fre	-1365
▁item	-1366
▁play	-1367
▁eleph	-1368
▁customers	-1369
▁estimated	-1370
▁conditions	-1371
oz	-1372
tic	-1373
cing	-1374
ters	-1375
▁And	-1376
▁gra	-1377
▁rrf	-1378
▁1999	-1379
▁hist	-1380
▁indu	-1381
▁require	-1382
▁contract	-1383
▁phenotypes	-1384
ick	-1385
imum	-1386
▁beh	-1387
▁gre	-1388
▁init	-1389
▁neur	-1390
▁prin	-1391
▁team	-1392
anuary	-1393
▁services	-1394
▁specific	-1395
▁dividends	-1396
▁associated	-1397
42	-1398
the	-1399
uro	-1400
▁To	-1401
ufact	-1402
▁inst	-1403
▁sing	-1404
ection	-1405
▁terms	-1406
angible	-1407
olution	-1408
▁effects	-1409
▁nonamer	-1410
▁princip	-1411
.,	-1412
▁[	-1413
ier	-1414
ize	-1415
▁oc	-1416
ists	-1417
lect	-1418
will	-1419
▁employ	-1420
▁intern	-1421
▁method	-1422
▁phylogen	-1423
▁transcri	-1424
led	-1425
▁Se	-1426
arge	-1427
bran	-1428
ober	-1429
▁united	-1430
▁manufact	-1431
▁revenues	-1432
▁described	-1433
▁regulatory	-1434
86	-1435
Fs	-1436
lex	-1437
ote	-1438
rodu	-1439
▁did	-1440
▁import	-1441
▁compens	-1442
▁proceed	-1443
▁various	-1444
▁deferred	-1445
▁goodwill	-1446
to	-1447
rop	-1448
ider	-1449
nthe	-1450
▁bel	-1451
▁mis	-1452
▁buil	-1453
▁gran	-1454
ercial	-1455
▁above	-1456
▁because	-1457
▁sequences	-1458
▁commercial	-1459
ict	-1460
loc	-1461
rid	-1462
▁29	-1463
▁OR	-1464
▁sm	-1465
abor	-1466
ross	-1467
based	-1468
ently	-1469
▁test	-1470
▁invol	-1471
▁large	-1472
▁standard	-1473
▁amortization	-1474
▁compensation	-1475
17	-1476
60	-1477
89	-1478
==	-1479
co	-1480
put	-1481
ray	-1482
▁14	-1483
ateg	-1484
cept	-1485
line	-1486
ress	-1487
▁sur	-1488
ittle	-1489
▁game	-1490
▁much	-1491
▁nove	-1492
ctober	-1493
ptamer	-1494
▁nucle	-1495
cluding	-1496
▁energy	-1497
▁expect	-1498
▁november	-1499
▁reported	-1500
▁circadian	-1501
80	-1502
com	-1503
ind	-1504
ral	-1505
iles	-1506
itut	-1507
ivid	-1508
▁500	-1509
▁att	-1510
▁wor	-1511
ision	-1512
▁sell	-1513
ersity	-1514
▁single	-1515
▁customer	-1516
5%	-1517
83	-1518
▁–	-1519
ale	-1520
▁$-	-1521
▁PL	-1522
ores	-1523
▁corre	-1524
ividual	-1525
▁bacter	-1526
▁borrow	-1527
▁membran	-1528
▁accounting	-1529
Nv	-1530
.00	-1531
ila	-1532
ype	-1533
▁23	-1534
enal	-1535
iron	-1536
▁$10	-1537
▁IDC	-1538
▁Sci	-1539
▁pot	-1540
▁Cell	-1541
ctions	-1542
ederal	-1543
▁carry	-1544
▁early	-1545
▁occur	-1546
▁values	-1547
▁heptamer	-1548
▁research	-1549
ars	-1550
cont	-1551
gest	-1552
onds	-1553
reen	-1554
▁gas	-1555
▁sum	-1556
ended	-1557
▁begin	-1558
▁found	-1559
▁factors	-1560
▁species	-1561
▁detected	-1562
▁security	-1563
▁percentage	-1564
63	-1565
70	-1566
82	-1567
:.	-1568
py	-1569
hip	-1570
tem	-1571
resp	-1572
year	-1573
▁fix	-1574
▁neg	-1575
▁own	-1576
romos	-1577
▁fisc	-1578
▁make	-1579
urther	-1580
▁allow	-1581
▁since	-1582
▁while	-1583
▁nuclear	-1584
▁similar	-1585
▁obtained	-1586
▁decreased	-1587
▁obligations	-1588
5%)	-1589
ties	-1590
▁Pro	-1591
▁ful	-1592
asmod	-1593
avage	-1594
▁held	-1595
▁stat	-1596
inated	-1597
urance	-1598
▁belie	-1599
▁deriv	-1600
▁fiscal	-1601
▁restric	-1602
▁benefits	-1603
▁individual	-1604
1/	-1605
da	-1606
ink	-1607
ten	-1608
▁Al	-1609
▁gu	-1610
avor	-1611
▁For	-1612
wards	-1613
▁poss	-1614
▁Table	-1615
▁inhib	-1616
▁quant	-1617
▁taxes	-1618
ability	-1619
ulative	-1620
▁corresp	-1621
▁federal	-1622
▁october	-1623
▁portion	-1624
▁character	-1625
▁experiment	-1626
▁commitments	-1627
81	-1628
EN	-1629
oS	-1630
2.6	-1631
201	-1632
alf	-1633
olic	-1634
▁RAG	-1635
▁agg	-1636
▁conf	-1637
iology	-1638
▁elect	-1639
holders	-1640
ervation	-1641
▁charges	-1642
▁january	-1643
▁periods	-1644
▁studies	-1645
▁maturity	-1646
▁partially	-1647
▁intangible	-1648
1,	-1649
mi	-1650
ead	-1651
iven	-1652
lock	-1653
▁tre	-1654
anies	-1655
ining	-1656
right	-1657
▁qual	-1658
▁basis	-1659
▁small	-1660
▁recept	-1661
▁employe	-1662
▁improve	-1663
▁companies	-1664
▁contracts	-1665
▁reference	-1666
▁components	-1667
▁instruments	-1668
ful	-1669
orm	-1670
ria	-1671
▁Wh	-1672
▁top	-1673
▁rele	-1674
ateral	-1675
▁These	-1676
▁below	-1677
▁ratio	-1678
▁aggreg	-1679
▁against	-1680
▁issuance	-1681
▁previously	-1682
▁2.	-1683
orth	-1684
▁How	-1685
▁cit	-1686
▁crit	-1687
▁real	-1688
▁paras	-1689
▁separ	-1690
▁synthe	-1691
onucleot	-1692
▁neurons	-1693
▁rhythms	-1694
▁cleavage	-1695
▁phenotype	-1696
hes	-1697
ify	-1698
ozo	-1699
alar	-1700
hens	-1701
▁his	-1702
▁them	-1703
lected	-1704
▁America	-1705
▁positions	-1706
▁functional	-1707
9.	-1708
iqu	-1709
roso	-1710
ving	-1711
▁sit	-1712
phila	-1713
▁base	-1714
▁does	-1715
▁ever	-1716
mental	-1717
▁micro	-1718
▁point	-1719
ologies	-1720
▁mutant	-1721
rosophila	-1722
▁molecular	-1723
▁population	-1724
▁Z	-1725
une	-1726
uman	-1727
▁12/	-1728
▁Val	-1729
▁cum	-1730
▁kin	-1731
▁max	-1732
asion	-1733
ither	-1734
▁ORFs	-1735
▁loan	-1736
▁extra	-1737
▁fixed	-1738
▁series	-1739
▁suggest	-1740
▁elements	-1741
▁statement	-1742
▁throughout	-1743
▁international	-1744
36	-1745
DF	-1746
ik	-1747
▁Ac	-1748
ness	-1749
▁Con	-1750
▁tak	-1751
ilies	-1752
▁1997	-1753
▁calc	-1754
▁sour	-1755
ension	-1756
rehens	-1757
▁among	-1758
▁estab	-1759
▁States	-1760
▁strong	-1761
asmodium	-1762
rehensive	-1763
);	-1764
62	-1765
88	-1766
0%)	-1767
Nvs	-1768
RNA	-1769
ish	-1770
ret	-1771
ered	-1772
rary	-1773
▁$2.	-1774
ories	-1775
other	-1776
▁mult	-1777
▁next	-1778
tember	-1779
▁gover	-1780
ousands	-1781
▁constru	-1782
▁membrane	-1783
▁aggregate	-1784
▁beginning	-1785
▁potential	-1786
▁Drosophila	-1787
▁cumulative	-1788
▁transactions	-1789
ler	-1790
min	-1791
pen	-1792
▁$4	-1793
▁ke	-1794
▁nM	-1795
medi	-1796
▁cre	-1797
▁del	-1798
▁inf	-1799
ained	-1800
viron	-1801
▁home	-1802
▁line	-1803
▁bonds	-1804
▁plast	-1805
▁clones	-1806
▁fourth	-1807
▁strain	-1808
avorable	-1809
▁discount	-1810
▁elephants	-1811
▁important	-1812
▁principal	-1813
▁Plasmodium	-1814
▁businesses	-1815
▁discussion	-1816
▁comprehensive	-1817
RSS	-1818
ann	-1819
▁Le	-1820
ield	-1821
lied	-1822
read	-1823
than	-1824
acity	-1825
avior	-1826
itive	-1827
▁cent	-1828
▁poly	-1829
▁very	-1830
▁2007.	-1831
▁2014,	-1832
▁expos	-1833
▁graph	-1834
ination	-1835
▁member	-1836
fficient	-1837
▁further	-1838
▁profiles	-1839
▁required	-1840
▁indicated	-1841
▁phosphory	-1842
▁activation	-1843
▁particular	-1844
▁distribution	-1845
09	-1846
4)	-1847
ah	-1848
bru	-1849
gal	-1850
tax	-1851
▁At	-1852
▁hom	-1853
ronic	-1854
scill	-1855
ually	-1856
▁econ	-1857
▁free	-1858
▁step	-1859
▁targ	-1860
bruary	-1861
encies	-1862
▁Valky	-1863
▁integ	-1864
▁range	-1865
▁sever	-1866
▁stage	-1867
▁invent	-1868
▁follows	-1869
▁however	-1870
▁families	-1871
▁original	-1872
▁technology	-1873
▁experiments	-1874
72	-1875
73	-1876
84	-1877
ES	-1878
yb	-1879
edu	-1880
ern	-1881
lob	-1882
▁Im	-1883
▁bi	-1884
ames	-1885
▁(1)	-1886
▁Mol	-1887
▁flu	-1888
▁2004	-1889
▁bank	-1890
▁need	-1891
▁2012,	-1892
▁accum	-1893
▁exist	-1894
▁funds	-1895
▁start	-1896
▁store	-1897
▁contin	-1898
▁family	-1899
▁limited	-1900
▁Valkyria	-1901
▁capacity	-1902
▁presence	-1903
▁liability	-1904
▁nucleotides	-1905
35	-1906
65	-1907
ris	-1908
▁el	-1909
eric	-1910
roup	-1911
▁bro	-1912
round	-1913
▁file	-1914
▁life	-1915
▁mort	-1916
▁rein	-1917
▁stim	-1918
ibrary	-1919
ozoite	-1920
▁2009,	-1921
▁brain	-1922
▁flows	-1923
▁factor	-1924
▁complete	-1925
▁includes	-1926
▁relative	-1927
▁transfer	-1928
▁september	-1929
▁production	-1930
ged	-1931
lot	-1932
▁LG	-1933
▁Ne	-1934
▁Sh	-1935
amet	-1936
sequ	-1937
▁$11	-1938
▁copy	-1939
▁down	-1940
▁half	-1941
▁open	-1942
atives	-1943
though	-1944
▁2006,	-1945
▁known	-1946
▁merch	-1947
▁right	-1948
▁mutants	-1949
▁plastid	-1950
▁several	-1951
▁receptor	-1952
▁performed	-1953
▁thousands	-1954
▁unrealized	-1955
95	-1956
▁bl	-1957
omot	-1958
ural	-1959
▁Sch	-1960
arker	-1961
porary	-1962
▁2013,	-1963
▁month	-1964
▁Little	-1965
▁govern	-1966
▁integr	-1967
▁matters	-1968
▁behavior	-1969
▁national	-1970
▁proceeds	-1971
▁determined	-1972
64	-1973
ety	-1974
ime	-1975
▁5.	-1976
alth	-1977
part	-1978
▁PDF	-1979
▁Res	-1980
▁dra	-1981
▁ord	-1982
▁Rock	-1983
▁coll	-1984
▁doll	-1985
▁list	-1986
▁subst	-1987
▁environ	-1988
▁genomes	-1989
▁holders	-1990
▁observed	-1991
▁provides	-1992
▁received	-1993
▁generally	-1994
ID	-1995
▁:	-1996
ner	-1997
orn	-1998
ton	-1999
cell	-2000
kans	-2001
lexa	-2002
port	-2003
▁10%	-2004
▁eng	-2005
▁pat	-2006
▁pmi	-2007
▁(201	-2008
▁post	-2009
▁role	-2010
▁valu	-2011
▁gross	-2012
▁mortg	-2013
▁2002).	-2014
▁likely	-2015
▁margin	-2016
▁Science	-2017
▁measure	-2018
▁pension	-2019
▁provide	-2020
▁maintain	-2021
▁increases	-2022
▁insurance	-2023
▁agreements	-2024
▁accumulated	-2025
▁transcription	-2026
18	-2027
32	-2028
FP	-2029
lf	-2030
lp	-2031
app	-2032
ird	-2033
▁TC	-2034
▁tr	-2035
▁ut	-2036
abel	-2037
istr	-2038
▁$12	-2039
▁hed	-2040
▁sen	-2041
ables	-2042
olumb	-2043
urope	-2044
▁Jack	-2045
▁sold	-2046
kansas	-2047
▁2003,	-2048
▁2015,	-2049
▁accru	-2050
▁frequ	-2051
▁human	-2052
▁input	-2053
▁world	-2054
▁either	-2055
▁highly	-2056
▁settle	-2057
▁solexa	-2058
iversity	-2059
▁amortized	-2060
▁directors	-2061
ligonucleot	-2062
8%	-2063
au	-2064
▁i	-2065
iver	-2066
▁(4.	-2067
▁adv	-2068
▁dev	-2069
ances	-2070
atell	-2071
lobal	-2072
▁grow	-2073
▁june	-2074
▁lead	-2075
▁perm	-2076
▁prom	-2077
istics	-2078
ptions	-2079
▁2011,	-2080
▁2017,	-2081
▁admin	-2082
▁along	-2083
▁track	-2084
related	-2085
▁Columb	-2086
▁oscill	-2087
▁weight	-2088
▁However	-2089
▁recover	-2090
continued	-2091
ification	-2092
▁invasion	-2093
▁estimates	-2094
▁investing	-2095
▁resulting	-2096
▁identified	-2097
▁requirements	-2098
df	-2099
arm	-2100
val	-2101
▁PM	-2102
▁jo	-2103
loss	-2104
rent	-2105
ring	-2106
ruct	-2107
▁All	-2108
▁now	-2109
▁opp	-2110
▁$100	-2111
▁1996	-2112
▁cour	-2113
▁crop	-2114
▁meet	-2115
alaria	-2116
iation	-2117
ording	-2118
▁2008,	-2119
▁plasm	-2120
▁recon	-2121
▁third	-2122
▁United	-2123
▁before	-2124
▁receiv	-2125
▁borrowings	-2126
▁derivative	-2127
.@	-2128
2,	-2129
39	-2130
57	-2131
lu	-2132
▁Bu	-2133
▁DD	-2134
▁sa	-2135
ints	-2136
urch	-2137
▁@.@	-2138
▁aes	-2139
▁ren	-2140
senal	-2141
▁Blue	-2142
▁case	-2143
▁exer	-2144
▁hous	-2145
▁2012.	-2146
▁antig	-2147
▁board	-2148
▁count	-2149
▁every	-2150
▁incur	-2151
▁Barker	-2152
▁assess	-2153
▁commod	-2154
▁extent	-2155
▁global	-2156
▁backlog	-2157
dependent	-2158
▁variance	-2159
▁administr	-2160
4.0	-2161
ane	-2162
▁Ex	-2163
▁II	-2164
ison	-2165
work	-2166
▁(3.	-2167
▁LGT	-2168
▁law	-2169
▁sch	-2170
▁bran	-2171
▁repl	-2172
▁There	-2173
▁usage	-2174
▁Biology	-2175
▁locomot	-2176
▁strateg	-2177
▁trading	-2178
▁working	-2179
▁building	-2180
▁employees	-2181
▁financing	-2182
▁synthesis	-2183
▁University	-2184
21	-2185
53	-2186
1.0	-2187
oot	-2188
wer	-2189
▁50	-2190
▁CC	-2191
▁De	-2192
atas	-2193
ends	-2194
itro	-2195
lick	-2196
ople	-2197
pril	-2198
▁put	-2199
▁war	-2200
ivity	-2201
poses	-2202
verse	-2203
▁core	-2204
▁know	-2205
▁Click	-2206
▁parts	-2207
▁phase	-2208
▁units	-2209
▁across	-2210
▁senior	-2211
▁stores	-2212
▁transf	-2213
onsensus	-2214
ublished	-2215
▁Jackets	-2216
▁ability	-2217
▁counter	-2218
▁paramet	-2219
ationship	-2220
▁attribut	-2221
▁purposes	-2222
▁formation	-2223
▁differences	-2224
▁independent	-2225
56	-2226
200	-2227
ody	-2228
ator	-2229
bust	-2230
ella	-2231
ogen	-2232
rote	-2233
▁13.	-2234
▁But	-2235
▁red	-2236
ional	-2237
ising	-2238
ybrid	-2239
▁Comm	-2240
▁last	-2241
▁ship	-2242
itures	-2243
▁demon	-2244
▁gains	-2245
▁labor	-2246
▁limit	-2247
▁short	-2248
▁access	-2249
▁screen	-2250
▁accrued	-2251
▁applied	-2252
▁contain	-2253
▁payment	-2254
▁whether	-2255
▁American	-2256
▁approved	-2257
▁february	-2258
▁involved	-2259
▁component	-2260
▁copyright	-2261
▁favorable	-2262
▁signaling	-2263
▁oligonucleot	-2264
05	-2265
48	-2266
99	-2267
ho	-2268
ras	-2269
▁Be	-2270
ably	-2271
chan	-2272
isms	-2273
▁unc	-2274
cient	-2275
istic	-2276
range	-2277
▁bill	-2278
onding	-2279
▁Black	-2280
▁effici	-2281
▁multip	-2282
▁people	-2283
▁retail	-2284
▁review	-2285
▁greater	-2286
▁history	-2287
▁malaria	-2288
▁consider	-2289
▁constant	-2290
▁demonstr	-2291
▁incurred	-2292
▁organism	-2293
▁resulted	-2294
▁weighted	-2295
▁bacterial	-2296
▁acquisitions	-2297
▁relationship	-2298
▁shareholders	-2299
2)	-2300
go	-2301
pa	-2302
gen	-2303
rug	-2304
ury	-2305
50%)	-2306
land	-2307
rial	-2308
▁12-	-2309
▁aff	-2310
▁day	-2311
▁let	-2312
▁vac	-2313
▁fees	-2314
▁help	-2315
▁peak	-2316
▁prob	-2317
▁prot	-2318
▁sens	-2319
▁2006.	-2320
▁assay	-2321
▁cycle	-2322
▁flies	-2323
▁legal	-2324
▁lines	-2325
▁order	-2326
▁seven	-2327
▁groups	-2328
▁hybrid	-2329
▁option	-2330
▁retire	-2331
▁decline	-2332
▁maximum	-2333
temporary	-2334
▁majority	-2335
▁reserved	-2336
▁quarterly	-2337
▁containing	-2338
▁nucleotide	-2339
▁established	-2340
16	-2341
26	-2342
27	-2343
GFP	-2344
ert	-2345
ina	-2346
ope	-2347
opl	-2348
pri	-2349
▁-3	-2350
▁7.	-2351
▁ju	-2352
eted	-2353
ires	-2354
quid	-2355
▁bon	-2356
▁coe	-2357
▁syn	-2358
▁win	-2359
asing	-2360
ering	-2361
gests	-2362
▁full	-2363
▁summ	-2364
▁wild	-2365
▁While	-2366
▁shows	-2367
unction	-2368
▁domain	-2369
▁expend	-2370
▁indian	-2371
▁indust	-2372
▁mechan	-2373
▁office	-2374
▁public	-2375
▁season	-2376
▁should	-2377
▁substr	-2378
ronicles	-2379
▁reduced	-2380
fficients	-2381
▁Columbus	-2382
▁carrying	-2383
▁electric	-2384
▁parasite	-2385
▁suggests	-2386
▁transloc	-2387
▁evolution	-2388
▁Chronicles	-2389
▁combination	-2390
03	-2391
07	-2392
1)	-2393
4%	-2394
8,	-2395
ww	-2396
yl	-2397
DNA	-2398
apt	-2399
els	-2400
ipp	-2401
ses	-2402
▁PH	-2403
▁Sc	-2404
cine	-2405
cise	-2406
like	-2407
omen	-2408
pose	-2409
rich	-2410
semb	-2411
ware	-2412
▁PLD	-2413
▁buy	-2414
▁ess	-2415
▁fra	-2416
▁mil	-2417
older	-2418
▁2021	-2419
▁conc	-2420
▁hand	-2421
▁norm	-2422
ataset	-2423
▁align	-2424
▁antic	-2425
▁study	-2426
▁americ	-2427
▁combin	-2428
▁growth	-2429
ulations	-2430
▁another	-2431
▁chromos	-2432
▁closing	-2433
▁conting	-2434
▁markets	-2435
▁members	-2436
▁primary	-2437
▁reprodu	-2438
▁without	-2439
▁accounts	-2440
▁directly	-2441
▁economic	-2442
▁negative	-2443
▁possible	-2444
▁property	-2445
▁substant	-2446
▁accounted	-2447
▁constants	-2448
▁determine	-2449
▁authorized	-2450
▁calculated	-2451
▁regulation	-2452
▁interactions	-2453
▁corresponding	-2454
▁environmental	-2455
▁manufacturing	-2456
91	-2457
ym	-2458
===	-2459
arc	-2460
eng	-2461
osy	-2462
par	-2463
spe	-2464
ypa	-2465
ised	-2466
▁Med	-2467
▁den	-2468
▁====	-2469
▁conn	-2470
▁fund	-2471
▁july	-2472
▁move	-2473
▁nypa	-2474
▁priv	-2475
▁symb	-2476
phosph	-2477
▁april	-2478
▁close	-2479
▁loans	-2480
▁paper	-2481
▁trade	-2482
ression	-2483
▁charge	-2484
▁events	-2485
▁observ	-2486
▁robust	-2487
▁minimum	-2488
▁recovery	-2489
▁completed	-2490
▁properties	-2491
▁settlement	-2492
▁represented	-2493
▁experimental	-2494
24	-2495
55	-2496
375	-2497
amb	-2498
enn	-2499
ins	-2500
sue	-2501
uis	-2502
hood	-2503
omal	-2504
otes	-2505
tion	-2506
ypes	-2507
▁(2)	-2508
▁Cal	-2509
▁Pdf	-2510
▁sav	-2511
ample	-2512
ients	-2513
ptide	-2514
▁ampl	-2515
▁dest	-2516
abeled	-2517
icense	-2518
ission	-2519
▁(10%)	-2520
▁2016,	-2521
▁final	-2522
reative	-2523
▁exclud	-2524
▁leases	-2525
▁predic	-2526
atellite	-2527
idential	-2528
▁homolog	-2529
▁overall	-2530
▁merchand	-2531
▁discussed	-2532
▁attributable	-2533
-1	-2534
.0	-2535
1%	-2536
14	-2537
5)	-2538
54	-2539
67	-2540
98	-2541
pd	-2542
fol	-2543
ple	-2544
▁Bo	-2545
aged	-2546
iana	-2547
oles	-2548
orts	-2549
reak	-2550
▁$55	-2551
▁Bio	-2552
▁abs	-2553
▁fil	-2554
▁get	-2555
▁ill	-2556
▁tem	-2557
anced	-2558
ether	-2559
ortun	-2560
▁corn	-2561
▁exam	-2562
▁must	-2563
▁vers	-2564
idered	-2565
▁2007,	-2566
▁Asian	-2567
▁began	-2568
▁bonus	-2569
▁equip	-2570
itative	-2571
resents	-2572
▁Nature	-2573
▁compos	-2574
▁detail	-2575
▁liquid	-2576
▁statut	-2577
▁entered	-2578
▁section	-2579
▁special	-2580
▁pathways	-2581
rangements	-2582
▁phylogeny	-2583
▁processes	-2584
▁published	-2585
▁purchases	-2586
▁parameters	-2587
▁sufficient	-2588
▁coefficients	-2589
22	-2590
97	-2591
PL	-2592
ks	-2593
ov	-2594
tt	-2595
0.0	-2596
25%	-2597
den	-2598
ffd	-2599
ude	-2600
▁By	-2601
▁KB	-2602
▁Ro	-2603
0000	-2604
ogra	-2605
othe	-2606
pect	-2607
vest	-2608
wide	-2609
▁Our	-2610
▁oil	-2611
▁way	-2612
ather	-2613
ticle	-2614
▁PLoS	-2615
▁That	-2616
▁fffd	-2617
▁poor	-2618
▁reve	-2619
▁turn	-2620
▁your	-2621
idence	-2622
▁lives	-2623
▁louis	-2624
▁polic	-2625
▁risks	-2626
▁sheet	-2627
▁assign	-2628
▁except	-2629
▁stages	-2630
▁dollars	-2631
▁initial	-2632
▁contains	-2633
▁considered	-2634
▁represents	-2635
▁adjustments	-2636
▁transaction	-2637
▁oscillations	-2638
ki	-2639
31/	-2640
cif	-2641
eli	-2642
ios	-2643
mic	-2644
▁mM	-2645
-201	-2646
ique	-2647
rast	-2648
rust	-2649
▁$3.	-2650
▁art	-2651
▁enc	-2652
▁hyp	-2653
folio	-2654
ister	-2655
▁LNvs	-2656
▁RSSs	-2657
▁even	-2658
▁hard	-2659
▁medi	-2660
▁want	-2661
struct	-2662
▁black	-2663
▁carri	-2664
▁curve	-2665
▁event	-2666
▁initi	-2667
▁least	-2668
▁excess	-2669
▁inputs	-2670
▁source	-2671
▁though	-2672
▁timing	-2673
▁Commons	-2674
▁clients	-2675
▁inhibit	-2676
▁repurch	-2677
▁subsequ	-2678
▁adjusted	-2679
▁impacted	-2680
▁particip	-2681
▁restrict	-2682
▁effective	-2683
▁equipment	-2684
▁portfolio	-2685
▁preferred	-2686
▁behavioral	-2687
▁difference	-2688
▁translation	-2689
▁contributions	-2690
66	-2691
oh	-2692
%),	-2693
RES	-2694
alt	-2695
day	-2696
era	-2697
ols	-2698
rev	-2699
til	-2700
▁($	-2701
▁-1	-2702
▁2,	-2703
enop	-2704
ites	-2705
omon	-2706
rocy	-2707
▁mas	-2708
▁tro	-2709
array	-2710
eryth	-2711
inery	-2712
sions	-2713
▁larg	-2714
▁situ	-2715
ending	-2716
enopus	-2717
▁clear	-2718
▁given	-2719
▁great	-2720
▁immun	-2721
▁might	-2722
▁plant	-2723
▁solut	-2724
ictions	-2725
▁kinase	-2726
▁plasma	-2727
▁recent	-2728
▁remain	-2729
specific	-2730
▁Blackie	-2731
▁housing	-2732
erythrocy	-2733
▁affected	-2734
▁believes	-2735
▁critical	-2736
▁identify	-2737
▁opportun	-2738
▁projects	-2739
▁commodity	-2740
▁complexes	-2741
▁expressed	-2742
▁generated	-2743
▁inventory	-2744
▁louisiana	-2745
▁solutions	-2746
▁counterpart	-2747
▁translocation	-2748
▁phosphorylation	-2749
,@	-2750
3)	-2751
cks	-2752
inc	-2753
ino	-2754
ley	-2755
omp	-2756
org	-2757
pid	-2758
▁25	-2759
▁26	-2760
▁Ev	-2761
▁Is	-2762
▁ii	-2763
▁sw	-2764
25%)	-2765
atic	-2766
chem	-2767
eady	-2768
ient	-2769
ival	-2770
▁@,@	-2771
▁Par	-2772
▁She	-2773
▁key	-2774
▁myc	-2775
▁six	-2776
andid	-2777
ender	-2778
orpor	-2779
state	-2780
tical	-2781
▁alle	-2782
▁call	-2783
▁drug	-2784
▁just	-2785
▁orth	-2786
omonas	-2787
▁2013.	-2788
▁block	-2789
▁child	-2790
▁enter	-2791
▁taken	-2792
▁tower	-2793
▁whole	-2794
lection	-2795
▁applic	-2796
▁commun	-2797
▁compet	-2798
▁engine	-2799
▁specif	-2800
▁stated	-2801
▁steady	-2802
▁struct	-2803
▁unique	-2804
▁Xenopus	-2805
▁located	-2806
▁network	-2807
▁profile	-2808
▁Creative	-2809
▁combined	-2810
▁institut	-2811
▁multiple	-2812
▁reaction	-2813
▁relating	-2814
▁corporate	-2815
▁predicted	-2816
▁correlation	-2817
▁conservation	-2818
▁expenditures	-2819
▁phylogenetic	-2820
34	-2821
41	-2822
78	-2823
yn	-2824
ENT	-2825
aim	-2826
obs	-2827
sec	-2828
▁22	-2829
▁40	-2830
▁On	-2831
▁PC	-2832
▁ap	-2833
PLoS	-2834
ford	-2835
hers	-2836
sure	-2837
umer	-2838
▁San	-2839
▁mak	-2840
▁mid	-2841
▁pan	-2842
iforn	-2843
itted	-2844
▁Cent	-2845
▁They	-2846
▁decl	-2847
▁expl	-2848
▁lack	-2849
▁mond	-2850
▁type	-2851
holder	-2852
lement	-2853
terest	-2854
▁2014.	-2855
▁After	-2856
▁crops	-2857
▁offer	-2858
▁spect	-2859
▁theme	-2860
▁times	-2861
acteria	-2862
elihood	-2863
▁months	-2864
▁necess	-2865
▁resour	-2866
cellular	-2867
▁License	-2868
▁respons	-2869
▁selling	-2870
▁according	-2871
▁essential	-2872
▁frequency	-2873
▁reactions	-2874
▁respective	-2875
▁restricted	-2876
▁transition	-2877
▁manufacture	-2878
▁recognition	-2879
38	-2880
94	-2881
HE	-2882
SU	-2883
].	-2884
pb	-2885
):.	-2886
aff	-2887
aps	-2888
ero	-2889
ito	-2890
uda	-2891
▁Cl	-2892
▁SJ	-2893
aced	-2894
deem	-2895
erve	-2896
leph	-2897
ling	-2898
onal	-2899
pbio	-2900
pite	-2901
rant	-2902
ront	-2903
step	-2904
type	-2905
uted	-2906
▁Sim	-2907
▁bar	-2908
izont	-2909
▁Fran	-2910
▁brok	-2911
▁fail	-2912
▁inde	-2913
▁loci	-2914
▁near	-2915
▁plus	-2916
▁tier	-2917
▁2009.	-2918
▁Immun	-2919
▁built	-2920
▁grant	-2921
▁rapid	-2922
ifornia	-2923
▁12/31/	-2924
▁appear	-2925
▁assemb	-2926
▁awards	-2927
▁confir	-2928
▁entire	-2929
▁histor	-2930
▁immedi	-2931
▁listed	-2932
▁redeem	-2933
▁supply	-2934
cription	-2935
kelihood	-2936
▁continu	-2937
▁defined	-2938
▁forward	-2939
▁lateral	-2940
▁options	-2941
including	-2942
▁appropri	-2943
▁consists	-2944
▁exposure	-2945
▁extracts	-2946
▁putative	-2947
▁relation	-2948
▁comparison	-2949
▁connection	-2950
▁government	-2951
▁receivable	-2952
▁populations	-2953
▁arrangements	-2954
6)	-2955
AS	-2956
ai	-2957
of	-2958
awa	-2959
dec	-2960
▁32	-2961
▁6.	-2962
▁Fe	-2963
▁US	-2964
▁sl	-2965
atis	-2966
data	-2967
lass	-2968
oper	-2969
osit	-2970
outh	-2971
rate	-2972
seud	-2973
▁(1.	-2974
▁15.	-2975
▁Met	-2976
▁THE	-2977
▁add	-2978
▁cyt	-2979
▁don	-2980
▁few	-2981
amort	-2982
aplot	-2983
ences	-2984
reens	-2985
▁Cons	-2986
▁Fair	-2987
▁Hall	-2988
▁feat	-2989
▁late	-2990
▁merg	-2991
▁thus	-2992
▁wind	-2993
ermuda	-2994
ounced	-2995
▁offic	-2996
▁steps	-2997
▁until	-2998
▁vitro	-2999
ordance	-3000
▁conver	-3001
▁points	-3002
▁useful	-3003
▁introdu	-3004
▁library	-3005
▁unamort	-3006
▁vaccine	-3007
ordinated	-3008
phosphory	-3009
▁Although	-3010
▁Arkansas	-3011
▁bacteria	-3012
▁existing	-3013
▁indicate	-3014
▁continued	-3015
▁indicates	-3016
▁therefore	-3017
▁microarray	-3018
▁capitalized	-3019
▁unamortized	-3020
7)	-3021
HL	-3022
sb	-3023
50%	-3024
ada	-3025
ids	-3026
opy	-3027
pro	-3028
▁37	-3029
▁48	-3030
▁Li	-3031
▁SE	-3032
▁dr	-3033
aker	-3034
axin	-3035
cogn	-3036
ests	-3037
ials	-3038
king	-3039
less	-3040
ries	-3041
▁$75	-3042
▁Cur	-3043
▁cry	-3044
▁cut	-3045
▁gun	-3046
▁nat	-3047
▁unf	-3048
▁vol	-3049
IDENT	-3050
ators	-3051
estic	-3052
itude	-3053
ptome	-3054
▁Chem	-3055
▁PRES	-3056
▁bott	-3057
▁mach	-3058
▁york	-3059
olving	-3060
▁build	-3061
▁categ	-3062
▁claim	-3063
▁coven	-3064
▁games	-3065
▁influ	-3066
▁quest	-3067
▁sites	-3068
▁whose	-3069
artment	-3070
iations	-3071
ibility	-3072
itation	-3073
▁1999).	-3074
▁2000).	-3075
▁2003).	-3076
▁active	-3077
▁candid	-3078
▁demand	-3079
▁detect	-3080
▁implic	-3081
▁orders	-3082
▁reduce	-3083
▁scient	-3084
▁spread	-3085
izations	-3086
▁carried	-3087
▁impella	-3088
▁reflect	-3089
▁savings	-3090
▁screens	-3091
iological	-3092
▁division	-3093
▁estimate	-3094
▁incorpor	-3095
▁mortgage	-3096
▁ortholog	-3097
▁separate	-3098
▁PRESIDENT	-3099
▁liquidity	-3100
▁reporting	-3101
▁statutory	-3102
▁consistent	-3103
▁generation	-3104
▁topologies	-3105
▁appropriate	-3106
▁contractual	-3107
▁locomotives	-3108
▁stimulation	-3109
▁administrative	-3110
92	-3111
IC	-3112
▁z	-3113
5.0	-3114
6.0	-3115
ico	-3116
ivo	-3117
ool	-3118
▁(5	-3119
▁21	-3120
▁33	-3121
▁|.	-3122
ards	-3123
ault	-3124
inct	-3125
lies	-3126
life	-3127
lish	-3128
ocus	-3129
oney	-3130
time	-3131
▁(0.	-3132
▁12.	-3133
▁29,	-3134
▁50%	-3135
▁Col	-3136
▁Des	-3137
▁bio	-3138
▁deg	-3139
▁dig	-3140
▁rib	-3141
▁tog	-3142
▁via	-3143
etics	-3144
group	-3145
icing	-3146
lower	-3147
▁elim	-3148
▁host	-3149
▁vend	-3150
▁2010,	-3151
▁Eleph	-3152
▁displ	-3153
▁fully	-3154
▁heter	-3155
▁issue	-3156
▁later	-3157
▁metab	-3158
▁money	-3159
▁north	-3160
▁place	-3161
▁redem	-3162
▁still	-3163
tenance	-3164
▁100.00	-3165
▁Genome	-3166
▁course	-3167
▁wholes	-3168
olecular	-3169
▁antigen	-3170
▁article	-3171
▁assumed	-3172
▁bermuda	-3173
▁largest	-3174
▁private	-3175
▁totaled	-3176
excluding	-3177
▁elephant	-3178
▁features	-3179
▁maturing	-3180
▁occurred	-3181
▁requires	-3182
▁segments	-3183
▁together	-3184
▁transport	-3185
▁uncertain	-3186
▁classified	-3187
▁collateral	-3188
▁contingent	-3189
▁redemption	-3190
▁substrates	-3191
▁distributed	-3192
▁residential	-3193
▁quantitative	-3194
.”	-3195
4,	-3196
52	-3197
9%	-3198
az	-3199
cc	-3200
ee	-3201
bry	-3202
ger	-3203
ili	-3204
umb	-3205
▁(6	-3206
▁GM	-3207
▁If	-3208
▁Ph	-3209
▁ge	-3210
▁ly	-3211
LNvs	-3212
acts	-3213
anes	-3214
hill	-3215
itor	-3216
izes	-3217
ored	-3218
raft	-3219
rist	-3220
wise	-3221
▁30,	-3222
▁Act	-3223
▁dow	-3224
gress	-3225
raser	-3226
▁(100	-3227
▁Gene	-3228
▁Inst	-3229
▁Thus	-3230
▁With	-3231
▁caus	-3232
▁done	-3233
▁flux	-3234
▁pass	-3235
▁surf	-3236
▁util	-3237
istant	-3238
▁2014?	-3239
▁Tower	-3240
▁cross	-3241
▁jones	-3242
▁subun	-3243
▁trust	-3244
▁women	-3245
▁normal	-3246
▁target	-3247
▁theore	-3248
▁transm	-3249
aterials	-3250
▁Library	-3251
▁believe	-3252
▁compris	-3253
▁install	-3254
▁approval	-3255
▁contrast	-3256
▁designed	-3257
▁invested	-3258
▁reinvest	-3259
▁selected	-3260
▁currently	-3261
▁diversity	-3262
▁machinery	-3263
▁materials	-3264
▁presented	-3265
▁revolving	-3266
▁maintenance	-3267
▁merchandise	-3268
▁institutions	-3269
▁restrictions	-3270
▁hybridization	-3271
▁significantly	-3272
':	-3273
90	-3274
TP	-3275
▁/	-3276
3.0	-3277
Gen	-3278
col	-3279
ops	-3280
roy	-3281
sch	-3282
ulf	-3283
use	-3284
▁$8	-3285
▁-2	-3286
▁Co	-3287
aran	-3288
fold	-3289
fric	-3290
ouse	-3291
prim	-3292
rict	-3293
vent	-3294
▁(3)	-3295
▁10.	-3296
▁27,	-3297
▁Ind	-3298
▁eff	-3299
▁lic	-3300
▁lit	-3301
▁log	-3302
▁mix	-3303
▁vir	-3304
assda	-3305
atisf	-3306
dered	-3307
▁Wild	-3308
▁care	-3309
▁days	-3310
▁foot	-3311
▁give	-3312
▁guid	-3313
▁left	-3314
▁pair	-3315
▁read	-3316
▁soft	-3317
▁vivo	-3318
alysis	-3319
amples	-3320
ightly	-3321
unning	-3322
▁2005,	-3323
▁Pseud	-3324
▁Since	-3325
▁Trans	-3326
▁bound	-3327
▁light	-3328
▁local	-3329
▁penal	-3330
▁tools	-3331
▁works	-3332
ruction	-3333
▁Fraser	-3334
▁altern	-3335
▁analyz	-3336
▁around	-3337
▁europe	-3338
▁reason	-3339
▁suppli	-3340
pression	-3341
▁Chromos	-3342
▁example	-3343
▁genomic	-3344
▁replace	-3345
primarily	-3346
▁approach	-3347
▁collabor	-3348
▁continue	-3349
▁periodic	-3350
▁realized	-3351
▁covenants	-3352
▁merozoite	-3353
▁reduction	-3354
▁valuation	-3355
▁wholesale	-3356
▁completion	-3357
▁organismal	-3358
▁Pseudomonas	-3359
▁transfected	-3360
▁developmental	-3361
▁relationships	-3362
,”	-3363
04	-3364
DI	-3365
YC	-3366
fs	-3367
455	-3368
9%)	-3369
ENC	-3370
cil	-3371
isd	-3372
▁(4	-3373
▁93	-3374
▁En	-3375
▁Sp	-3376
000)	-3377
berg	-3378
clus	-3379
ctor	-3380
ibri	-3381
lant	-3382
self	-3383
side	-3384
▁$4.	-3385
▁(7.	-3386
▁28,	-3387
▁Nat	-3388
▁Sec	-3389
▁Sum	-3390
▁ado	-3391
▁ens	-3392
▁nas	-3393
▁saf	-3394
▁spl	-3395
▁ste	-3396
▁tex	-3397
▁yet	-3398
enses	-3399
iving	-3400
▁100%	-3401
▁link	-3402
▁miss	-3403
▁prep	-3404
▁schl	-3405
▁self	-3406
chnera	-3407
igroup	-3408
▁2010.	-3409
▁2011.	-3410
▁2015.	-3411
▁condu	-3412
▁media	-3413
▁posit	-3414
▁pursu	-3415
▁refer	-3416
▁score	-3417
▁unsec	-3418
▁Flower	-3419
▁Method	-3420
▁actual	-3421
▁assays	-3422
▁center	-3423
▁curves	-3424
▁health	-3425
▁person	-3426
▁satisf	-3427
▁sister	-3428
▁tested	-3429
cognized	-3430
ribution	-3431
▁Arsenal	-3432
▁derived	-3433
▁equival	-3434
▁granted	-3435
▁hypothe	-3436
▁pattern	-3437
▁release	-3438
▁researc	-3439
▁securit	-3440
▁although	-3441
▁expensed	-3442
▁industry	-3443
▁measured	-3444
▁functions	-3445
▁organisms	-3446
▁proteases	-3447
▁unsecured	-3448
▁comparable	-3449
▁increasing	-3450
▁likelihood	-3451
▁stockholder	-3452
▁particularly	-3453
▁stockholders	-3454
▁technologies	-3455
▁unrecognized	-3456
▁transcriptional	-3457
93	-3458
II	-3459
IR	-3460
SP	-3461
Sc	-3462
by	-3463
cB	-3464
-3,	-3465
2.0	-3466
2.8	-3467
UDI	-3468
ctu	-3469
ule	-3470
ull	-3471
▁Su	-3472
▁es	-3473
▁sk	-3474
,000	-3475
ENCE	-3476
back	-3477
most	-3478
olip	-3479
onse	-3480
reed	-3481
reme	-3482
vant	-3483
▁$14	-3484
▁Joh	-3485
▁NHL	-3486
▁RIC	-3487
▁TCF	-3488
▁enh	-3489
▁jur	-3490
Table	-3491
erves	-3492
inary	-3493
lying	-3494
ugust	-3495
▁$201	-3496
▁$750	-3497
▁1994	-3498
▁AUDI	-3499
▁When	-3500
▁cult	-3501
▁damp	-3502
▁head	-3503
▁mask	-3504
▁nonc	-3505
▁poll	-3506
▁shut	-3507
▁writ	-3508
encing	-3509
▁2007?	-3510
▁added	-3511
▁break	-3512
▁negot	-3513
▁owned	-3514
▁rider	-3515
▁texas	-3516
▁volat	-3517
▁yield	-3518
utility	-3519
▁1998).	-3520
▁Atlant	-3521
▁affili	-3522
▁called	-3523
▁exceed	-3524
▁fluctu	-3525
▁jurisd	-3526
▁merger	-3527
▁remark	-3528
▁repair	-3529
▁simple	-3530
ological	-3531
phozoite	-3532
▁$100.00	-3533
▁Methods	-3534
▁arsenal	-3535
▁default	-3536
▁discont	-3537
▁display	-3538
▁finding	-3539
▁missile	-3540
▁quality	-3541
▁surface	-3542
▁targets	-3543
▁volumes	-3544
epartment	-3545
▁AUDIENCE	-3546
▁Buchnera	-3547
▁analyses	-3548
▁assuming	-3549
▁domestic	-3550
▁investig	-3551
▁pursuant	-3552
▁response	-3553
▁conserved	-3554
▁consisted	-3555
▁mortgages	-3556
▁accordance	-3557
▁applicable	-3558
▁constructs	-3559
▁processing	-3560
▁repurchase	-3561
▁separation	-3562
▁volatility	-3563
▁derivatives	-3564
▁destruction	-3565
▁engineering	-3566
▁securitization	-3567
1-	-3568
7%	-3569
77	-3570
AP	-3571
cu	-3572
gg	-3573
ox	-3574
va	-3575
ws	-3576
1%)	-3577
1).	-3578
itz	-3579
not	-3580
omb	-3581
pat	-3582
uth	-3583
▁2)	-3584
▁5-	-3585
▁Ed	-3586
▁mc	-3587
▁ow	-3588
....	-3589
alog	-3590
head	-3591
hold	-3592
opre	-3593
ourn	-3594
reng	-3595
uble	-3596
ules	-3597
▁$13	-3598
▁$30	-3599
▁(5.	-3600
▁Mal	-3601
▁PCR	-3602
▁Sal	-3603
▁War	-3604
▁anc	-3605
▁cad	-3606
▁flo	-3607
▁him	-3608
▁lat	-3609
▁ten	-3610
▁ter	-3611
ching	-3612
earch	-3613
eless	-3614
iment	-3615
tered	-3616
upled	-3617
ution	-3618
▁2030	-3619
▁alco	-3620
▁cars	-3621
▁land	-3622
▁mRNA	-3623
▁sets	-3624
▁unit	-3625
▁weap	-3626
▁yiel	-3627
anging	-3628
ground	-3629
ricted	-3630
ustral	-3631
▁1998;	-3632
▁2010?	-3633
▁Union	-3634
▁alloc	-3635
▁annot	-3636
▁arrow	-3637
▁cases	-3638
▁eight	-3639
▁split	-3640
▁trees	-3641
olipase	-3642
oprecip	-3643
▁criter	-3644
▁degree	-3645
▁differ	-3646
▁ending	-3647
▁ensure	-3648
▁haplot	-3649
▁intens	-3650
▁models	-3651
▁summar	-3652
▁symbol	-3653
▁unrest	-3654
umberger	-3655
▁Atlanta	-3656
▁Fairies	-3657
▁dataset	-3658
▁permits	-3659
▁regions	-3660
▁returns	-3661
obacteria	-3662
▁american	-3663
▁employee	-3664
▁exercise	-3665
▁positive	-3666
▁released	-3667
▁reserves	-3668
▁variable	-3669
▁Americans	-3670
▁Materials	-3671
▁announced	-3672
▁citigroup	-3673
▁composite	-3674
▁countries	-3675
▁decreases	-3676
▁locations	-3677
▁penalties	-3678
▁satellite	-3679
▁structure	-3680
▁California	-3681
▁currencies	-3682
▁historical	-3683
▁integrated	-3684
▁stimulated	-3685
▁researchers	-3686
▁retirements	-3687
▁substantial	-3688
▁discontinued	-3689
▁efficiencies	-3690
▁improvements	-3691
▁schlumberger	-3692
▁unrestricted	-3693
▁anticonsensus	-3694
▁jurisdictions	-3695
▁transcriptome	-3696
▁oligonucleotide	-3697
06	-3698
96	-3699
PS	-3700
St	-3701
Un	-3702
ae	-3703
bb	-3704
cm	-3705
wh	-3706
amm	-3707
bac	-3708
epo	-3709
irs	-3710
phy	-3711
rum	-3712
sub	-3713
uer	-3714
who	-3715
yse	-3716
▁01	-3717
▁24	-3718
▁5%	-3719
▁88	-3720
▁96	-3721
▁Ad	-3722
▁Ag	-3723
▁ep	-3724
▁er	-3725
IRcB	-3726
ades	-3727
aled	-3728
ampl	-3729
imal	-3730
onic	-3731
oted	-3732
role	-3733
▁$15	-3734
▁$17	-3735
▁III	-3736
▁cod	-3737
▁far	-3738
▁hpl	-3739
▁ide	-3740
▁say	-3741
ached	-3742
aving	-3743
inant	-3744
ingly	-3745
itary	-3746
itors	-3747
ogene	-3748
owned	-3749
rends	-3750
whole	-3751
▁(200	-3752
▁1995	-3753
▁Acad	-3754
▁Axin	-3755
▁Conf	-3756
▁Gamb	-3757
▁Last	-3758
▁Pres	-3759
▁York	-3760
▁best	-3761
▁chem	-3762
▁come	-3763
▁deal	-3764
▁food	-3765
▁goal	-3766
▁isol	-3767
▁pain	-3768
▁rRNA	-3769
▁seen	-3770
▁shar	-3771
▁uses	-3772
▁vent	-3773
oplasm	-3774
▁2003.	-3775
▁2015?	-3776
▁2017.	-3777
▁Afric	-3778
▁Prote	-3779
▁Using	-3780
▁draft	-3781
▁intra	-3782
▁super	-3783
itivity	-3784
▁(100%)	-3785
▁Center	-3786
▁buyout	-3787
▁disclo	-3788
▁hedges	-3789
▁interp	-3790
▁nassda	-3791
▁select	-3792
▁signed	-3793
▁streng	-3794
entially	-3795
▁absence	-3796
▁deliver	-3797
▁feature	-3798
▁freight	-3799
▁funding	-3800
▁peptide	-3801
▁purpose	-3802
▁refined	-3803
▁reserve	-3804
oundation	-3805
regulated	-3806
▁Analysis	-3807
▁Interest	-3808
▁arkansas	-3809
▁assigned	-3810
▁director	-3811
▁district	-3812
▁evidence	-3813
▁extended	-3814
▁recombin	-3815
▁software	-3816
▁additions	-3817
▁necessary	-3818
▁qualified	-3819
▁resources	-3820
▁alignments	-3821
▁completely	-3822
▁subsequent	-3823
▁suggesting	-3824
▁consideration	-3825
▁phosphorylated	-3826
BP	-3827
Cl	-3828
my	-3829
7.0	-3830
7.7	-3831
ads	-3832
aes	-3833
ari	-3834
daq	-3835
fin	-3836
igg	-3837
iom	-3838
mor	-3839
off	-3840
sel	-3841
ung	-3842
urb	-3843
▁1)	-3844
▁9.	-3845
▁Cy	-3846
▁DG	-3847
▁No	-3848
2003	-3849
izon	-3850
lene	-3851
lled	-3852
lood	-3853
more	-3854
pted	-3855
rick	-3856
rock	-3857
ster	-3858
vere	-3859
view	-3860
▁(30	-3861
▁109	-3862
▁14.	-3863
▁fee	-3864
▁fif	-3865
Prote	-3866
andom	-3867
asons	-3868
bacco	-3869
enced	-3870
ength	-3871
ignal	-3872
ished	-3873
itute	-3874
lects	-3875
omics	-3876
ready	-3877
ridge	-3878
▁1987	-3879
▁2024	-3880
▁Buil	-3881
▁Cont	-3882
▁Four	-3883
▁High	-3884
▁John	-3885
▁More	-3886
▁able	-3887
▁dedu	-3888
▁gulf	-3889
▁once	-3890
▁pace	-3891
▁remo	-3892
▁repe	-3893
▁size	-3894
▁slow	-3895
▁take	-3896
arante	-3897
ership	-3898
jected	-3899
oplast	-3900
▁2001;	-3901
▁2004,	-3902
▁Franc	-3903
▁HIRcB	-3904
▁Paras	-3905
▁alcoa	-3906
▁broad	-3907
▁disso	-3908
▁encod	-3909
▁expir	-3910
▁focus	-3911
▁items	-3912
▁story	-3913
▁think	-3914
▁water	-3915
average	-3916
binding	-3917
cession	-3918
istance	-3919
▁Gambia	-3920
▁almost	-3921
▁create	-3922
▁diverg	-3923
▁little	-3924
▁making	-3925
▁nasdaq	-3926
▁proble	-3927
▁random	-3928
▁replic	-3929
▁safety	-3930
▁termin	-3931
▁window	-3932
mediated	-3933
▁cadence	-3934
▁conflic	-3935
▁country	-3936
▁natural	-3937
▁predict	-3938
▁reclass	-3939
▁tobacco	-3940
▁antigens	-3941
▁children	-3942
▁distance	-3943
▁intended	-3944
▁phosphat	-3945
▁presents	-3946
▁recently	-3947
▁reflects	-3948
▁training	-3949
ifications	-3950
▁allowance	-3951
▁equations	-3952
▁establish	-3953
▁regulated	-3954
▁sequenced	-3955
▁strategic	-3956
combination	-3957
▁biological	-3958
▁discounted	-3959
▁positively	-3960
▁retirement	-3961
erythrocytic	-3962
▁inventories	-3963
▁responsible	-3964
▁Conservation	-3965
▁installments	-3966
▁counterparties	-3967
28	-3968
9)	-3969
AL	-3970
DP	-3971
ca	-3972
137	-3973
7.8	-3974
alu	-3975
atz	-3976
dle	-3977
dom	-3978
oth	-3979
www	-3980
▁3,	-3981
▁8.	-3982
▁Or	-3983
▁ve	-3984
ando	-3985
ball	-3986
bted	-3987
chie	-3988
graw	-3989
hest	-3990
pper	-3991
rael	-3992
vers	-3993
▁$23	-3994
▁$49	-3995
▁(2.	-3996
▁125	-3997
▁205	-3998
▁21.	-3999
▁300	-4000
▁31-	-4001
▁MSP	-4002
▁Mor	-4003
▁Per	-4004
▁Phy	-4005
▁Ret	-4006
▁Ros	-4007
▁Two	-4008
▁cyc	-4009
▁dam	-4010
▁doe	-4011
▁mst	-4012
▁vis	-4013
ality	-4014
attle	-4015
chond	-4016
cmake	-4017
cogen	-4018
ledge	-4019
oline	-4020
olved	-4021
oming	-4022
uerto	-4023
▁Hist	-4024
▁city	-4025
▁coli	-4026
▁cycl	-4027
▁cyto	-4028
▁dire	-4029
▁frag	-4030
▁mand	-4031
▁name	-4032
▁peer	-4033
▁rico	-4034
▁vary	-4035
estern	-4036
losses	-4037
search	-4038
ussion	-4039
▁(50%)	-4040
▁2002,	-4041
▁2002;	-4042
▁2016.	-4043
▁2017?	-4044
▁Micro	-4045
▁achie	-4046
▁antib	-4047
▁forma	-4048
▁forth	-4049
▁incub	-4050
▁noted	-4051
▁tests	-4052
bryonic	-4053
ception	-4054
current	-4055
ernando	-4056
weather	-4057
▁Christ	-4058
▁Intern	-4059
▁accomp	-4060
▁action	-4061
▁ancest	-4062
▁cannot	-4063
▁cooper	-4064
▁defect	-4065
▁expire	-4066
▁leased	-4067
▁mcgraw	-4068
▁medium	-4069
▁plants	-4070
▁policy	-4071
▁propos	-4072
▁puerto	-4073
▁regard	-4074
▁toward	-4075
▁traded	-4076
btedness	-4077
itochond	-4078
▁address	-4079
▁adverse	-4080
▁already	-4081
▁domains	-4082
▁extreme	-4083
▁induced	-4084
▁margins	-4085
▁maskray	-4086
▁pricing	-4087
▁protect	-4088
▁utility	-4089
▁Building	-4090
▁Francisc	-4091
▁cellular	-4092
▁distinct	-4093
▁improved	-4094
▁redeemed	-4095
▁restruct	-4096
▁rhythmic	-4097
▁slightly	-4098
▁utilized	-4099
▁blackrock	-4100
▁continues	-4101
▁detection	-4102
▁developed	-4103
▁logistics	-4104
▁operation	-4105
▁supported	-4106
▁Chromosome	-4107
▁adjustment	-4108
▁assessment	-4109
▁designated	-4110
▁hypothesis	-4111
▁inhibition	-4112
▁maturities	-4113
▁negatively	-4114
▁accordingly	-4115
▁electricity	-4116
▁sensitivity	-4117
▁theoretical	-4118
▁indebtedness	-4119
▁representing	-4120
phosphorylated	-4121
▁transportation	-4122
▁characteristics	-4123
Th	-4124
ec	-4125
ht	-4126
ls	-4127
oo	-4128
ze	-4129
0.9	-4130
173	-4131
The	-4132
ams	-4133
avi	-4134
des	-4135
don	-4136
mon	-4137
omy	-4138
pts	-4139
rim	-4140
▁60	-4141
▁75	-4142
▁Bt	-4143
▁NC	-4144
▁Zh	-4145
ging	-4146
issu	-4147
itol	-4148
mium	-4149
ults	-4150
▁$45	-4151
▁26.	-4152
▁400	-4153
▁EPS	-4154
▁USA	-4155
▁big	-4156
▁bra	-4157
▁cas	-4158
▁cat	-4159
▁cme	-4160
▁dro	-4161
▁egg	-4162
▁ing	-4163
▁lif	-4164
▁pol	-4165
▁squ	-4166
aging	-4167
amath	-4168
anged	-4169
asury	-4170
ecess	-4171
hesin	-4172
spect	-4173
ulate	-4174
▁1000	-4175
▁Sequ	-4176
▁Soci	-4177
▁apic	-4178
▁ball	-4179
▁came	-4180
▁dark	-4181
▁keep	-4182
▁mean	-4183
▁repa	-4184
▁shot	-4185
▁site	-4186
▁spec	-4187
▁stra	-4188
▁tree	-4189
▁vest	-4190
▁wide	-4191
acters	-4192
ensive	-4193
isions	-4194
itated	-4195
merase	-4196
onight	-4197
ournal	-4198
umbing	-4199
▁(2018	-4200
▁2008.	-4201
▁2012?	-4202
▁Exper	-4203
▁State	-4204
▁accur	-4205
▁attem	-4206
▁basic	-4207
▁clust	-4208
▁equal	-4209
▁false	-4210
▁filed	-4211
▁kraft	-4212
▁never	-4213
▁numer	-4214
▁pacem	-4215
▁recru	-4216
▁sched	-4217
▁thank	-4218
▁treat	-4219
itution	-4220
▁(2000)	-4221
▁2001).	-4222
▁During	-4223
▁Effect	-4224
▁Schatz	-4225
▁correl	-4226
▁extend	-4227
▁letter	-4228
▁manner	-4229
▁mondel	-4230
▁others	-4231
▁played	-4232
▁player	-4233
▁region	-4234
▁timepo	-4235
atically	-4236
function	-4237
position	-4238
research	-4239
schizont	-4240
▁Biochem	-4241
▁allowed	-4242
▁anticip	-4243
▁closely	-4244
▁despite	-4245
▁details	-4246
▁instead	-4247
▁labeled	-4248
▁ordered	-4249
▁outside	-4250
▁samples	-4251
▁signals	-4252
▁thought	-4253
▁version	-4254
▁whereas	-4255
▁category	-4256
▁credited	-4257
▁guarante	-4258
▁leverage	-4259
▁licenses	-4260
▁military	-4261
▁movement	-4262
▁mutation	-4263
▁plumbing	-4264
▁produced	-4265
▁properly	-4266
▁relevant	-4267
▁republic	-4268
▁retained	-4269
▁straight	-4270
▁strongly	-4271
▁topology	-4272
▁Accession	-4273
▁accompany	-4274
▁confirmed	-4275
▁excluding	-4276
▁identical	-4277
▁predecess	-4278
▁provision	-4279
▁background	-4280
▁correspond	-4281
itochondrial	-4282
▁alternative	-4283
▁chromosomes	-4284
▁interaction	-4285
▁replacement	-4286
▁availability	-4287
▁expectations	-4288
▁reproduction	-4289
Proteobacteria	-4290
▁restructuring	-4291
▁understanding	-4292
▁administration	-4293
▁capitalization	-4294
.)	-4295
BC	-4296
GE	-4297
cs	-4298
kn	-4299
po	-4300
ps	-4301
-01	-4302
aun	-4303
bpd	-4304
ein	-4305
equ	-4306
eth	-4307
exp	-4308
htm	-4309
ift	-4310
rol	-4311
▁$.	-4312
▁39	-4313
▁4%	-4314
▁6,	-4315
▁95	-4316
▁Am	-4317
▁Gu	-4318
▁ML	-4319
▁Mc	-4320
▁Me	-4321
▁ed	-4322
▁pp	-4323
375%	-4324
ched	-4325
here	-4326
ivil	-4327
kary	-4328
mann	-4329
otin	-4330
plus	-4331
ship	-4332
ynam	-4333
▁$40	-4334
▁$5.	-4335
▁(13	-4336
▁18.	-4337
▁New	-4338
▁One	-4339
▁Rep	-4340
▁Sen	-4341
▁Wor	-4342
▁aon	-4343
▁fas	-4344
▁fel	-4345
▁old	-4346
▁pen	-4347
▁pra	-4348
▁som	-4349
▁typ	-4350
375%)	-4351
ading	-4352
agged	-4353
ander	-4354
aysia	-4355
celer	-4356
chron	-4357
field	-4358
ibank	-4359
ichia	-4360
leans	-4361
rants	-4362
scher	-4363
useum	-4364
utive	-4365
▁$1.0	-4366
▁$1.5	-4367
▁0.09	-4368
▁Care	-4369
▁Park	-4370
▁acid	-4371
▁anim	-4372
▁area	-4373
▁arms	-4374
▁citi	-4375
▁draw	-4376
▁euro	-4377
▁feed	-4378
▁feet	-4379
▁gain	-4380
▁hold	-4381
▁inch	-4382
▁look	-4383
▁loop	-4384
▁mbpd	-4385
▁nine	-4386
▁pick	-4387
▁pool	-4388
▁rear	-4389
▁stop	-4390
United	-4391
anning	-4392
elines	-4393
orizon	-4394
racted	-4395
▁2005.	-4396
▁blood	-4397
▁brand	-4398
▁defic	-4399
▁defin	-4400
▁evalu	-4401
▁resid	-4402
▁scaff	-4403
▁swaps	-4404
▁types	-4405
▁upper	-4406
Catenin	-4407
istrant	-4408
▁better	-4409
▁comput	-4410
▁dollar	-4411
▁expand	-4412
▁itself	-4413
▁marked	-4414
▁nearly	-4415
▁occurs	-4416
▁panels	-4417
▁rather	-4418
▁ratios	-4419
▁rental	-4420
▁taking	-4421
▁tender	-4422
▁troops	-4423
▁valued	-4424
▁Similar	-4425
▁Society	-4426
▁assumes	-4427
▁banking	-4428
▁becomes	-4429
▁classes	-4430
▁coupled	-4431
▁created	-4432
▁joining	-4433
▁largely	-4434
▁orleans	-4435
▁profess	-4436
▁surplus	-4437
abilities	-4438
datagroup	-4439
osylation	-4440
▁Concentr	-4441
▁analyzed	-4442
▁citibank	-4443
▁contacts	-4444
▁internal	-4445
▁starting	-4446
▁subunits	-4447
▁treasury	-4448
scherichia	-4449
▁Francisco	-4450
▁amplitude	-4451
▁collected	-4452
▁comparing	-4453
▁comprised	-4454
▁cytohesin	-4455
▁implement	-4456
▁interpret	-4457
▁locomotor	-4458
▁marketing	-4459
▁pacemaker	-4460
▁pollution	-4461
▁recognize	-4462
▁worldwide	-4463
▁candidates	-4464
▁commencing	-4465
▁commitment	-4466
▁efficiency	-4467
▁guidelines	-4468
▁industrial	-4469
▁laboratory	-4470
▁obligation	-4471
▁polymerase	-4472
▁registrant	-4473
▁remarketed	-4474
▁subsidiary	-4475
▁terminated	-4476
▁underlying	-4477
▁immediately	-4478
▁limitations	-4479
▁proceedings	-4480
▁accompanying	-4481
▁dissociation	-4482
▁evolutionary	-4483
▁incorporated	-4484
▁observations	-4485
▁distributions	-4486
▁opportunities	-4487
▁substantially	-4488
-9	-4489
//	-4490
5,	-4491
79	-4492
BS	-4493
CC	-4494
EM	-4495
NC	-4496
ey	-4497
1.1	-4498
2).	-4499
3.5	-4500
49)	-4501
://	-4502
bor	-4503
ief	-4504
lay	-4505
non	-4506
ota	-4507
van	-4508
zym	-4509
▁$(	-4510
▁-4	-4511
▁-5	-4512
▁3)	-4513
▁34	-4514
▁36	-4515
▁45	-4516
▁AI	-4517
▁BY	-4518
▁CL	-4519
▁HB	-4520
▁So	-4521
▁Sw	-4522
▁TL	-4523
-01-	-4524
4.50	-4525
RSSs	-4526
This	-4527
abin	-4528
alle	-4529
augh	-4530
come	-4531
educ	-4532
eter	-4533
hern	-4534
iers	-4535
igen	-4536
ille	-4537
ippi	-4538
lets	-4539
otic	-4540
siss	-4541
ustr	-4542
ways	-4543
▁$-3	-4544
▁ADP	-4545
▁Att	-4546
▁Ins	-4547
▁Mod	-4548
▁ORF	-4549
▁PMC	-4550
▁Upd	-4551
▁You	-4552
▁fri	-4553
▁hur	-4554
▁inn	-4555
▁mag	-4556
▁suc	-4557
▁wat	-4558
1371/	-4559
activ	-4560
arten	-4561
chise	-4562
going	-4563
iance	-4564
olumn	-4565
verex	-4566
▁$150	-4567
▁2020	-4568
▁Body	-4569
▁Many	-4570
▁Nove	-4571
▁PMID	-4572
▁Rich	-4573
▁Spac	-4574
▁asia	-4575
▁away	-4576
▁farm	-4577
▁fran	-4578
▁jobs	-4579
▁laun	-4580
▁lock	-4581
▁pert	-4582
▁road	-4583
▁says	-4584
▁seem	-4585
▁sent	-4586
▁song	-4587
▁sust	-4588
▁view	-4589
▁zero	-4590
cience	-4591
itable	-4592
ograph	-4593
osomal	-4594
▁2000,	-4595
▁2000;	-4596
▁2006?	-4597
▁2013?	-4598
▁Front	-4599
▁alone	-4600
▁court	-4601
▁drove	-4602
▁drugs	-4603
▁equil	-4604
▁going	-4605
▁partn	-4606
▁party	-4607
▁pharm	-4608
▁south	-4609
▁unsub	-4610
▁wrote	-4611
alarial	-4612
journal	-4613
ritical	-4614
▁Kamath	-4615
▁Public	-4616
▁Salmon	-4617
▁broker	-4618
▁canada	-4619
▁consum	-4620
▁depend	-4621
▁experi	-4622
▁former	-4623
▁tables	-4624
chnology	-4625
ociation	-4626
opyright	-4627
sissippi	-4628
▁Genetic	-4629
▁January	-4630
▁Updated	-4631
▁acceler	-4632
▁america	-4633
▁collect	-4634
▁conclus	-4635
▁cycling	-4636
▁deposit	-4637
▁elected	-4638
▁exposed	-4639
▁illustr	-4640
▁indices	-4641
▁numbers	-4642
▁paralle	-4643
▁promote	-4644
▁request	-4645
▁reveals	-4646
▁reverse	-4647
▁secured	-4648
▁weapons	-4649
▁written	-4650
satellite	-4651
struction	-4652
▁Citation	-4653
▁Elephant	-4654
▁National	-4655
▁November	-4656
▁bottlene	-4657
▁carryfor	-4658
▁findings	-4659
▁location	-4660
▁policies	-4661
▁protease	-4662
▁synchron	-4663
▁turnover	-4664
▁Parasitol	-4665
▁President	-4666
▁Retracted	-4667
▁alignment	-4668
▁contained	-4669
▁cytoplasm	-4670
▁franchise	-4671
▁mechanism	-4672
▁reflected	-4673
▁suppliers	-4674
▁apicoplast	-4675
▁consisting	-4676
▁contribute	-4677
▁mechanisms	-4678
▁offsetting	-4679
▁relatively	-4680
▁Attribution	-4681
▁authorities	-4682
▁communities	-4683
▁equivalents	-4684
▁predecessor	-4685
▁termination	-4686
▁unfavorable	-4687
▁construction	-4688
▁measurements	-4689
▁professional	-4690
▁reinvestment	-4691
▁specifically	-4692
▁transmission	-4693
▁phospholipase	-4694
02	-4695
3,	-4696
31	-4697
7,	-4698
76	-4699
8:	-4700
FT	-4701
IF	-4702
In	-4703
PH	-4704
RP	-4705
bs	-4706
eh	-4707
rb	-4708
sa	-4709
(1)	-4710
-78	-4711
2.2	-4712
2.4	-4713
29/	-4714
3).	-4715
4.3	-4716
5.6	-4717
833	-4718
CYC	-4719
ama	-4720
avy	-4721
dis	-4722
ira	-4723
let	-4724
net	-4725
opp	-4726
oss	-4727
ott	-4728
sus	-4729
ttp	-4730
uit	-4731
▁1%	-4732
▁46	-4733
▁Bi	-4734
▁Do	-4735
▁EM	-4736
▁LD	-4737
▁Pf	-4738
▁SD	-4739
▁di	-4740
▁pd	-4741
(1):	-4742
1544	-4743
1545	-4744
apan	-4745
arif	-4746
edom	-4747
emic	-4748
esis	-4749
ffer	-4750
mark	-4751
reat	-4752
rown	-4753
such	-4754
targ	-4755
usic	-4756
▁$16	-4757
▁$20	-4758
▁$59	-4759
▁$61	-4760
▁$68	-4761
▁(6.	-4762
▁08:	-4763
▁10-	-4764
▁11.	-4765
▁18,	-4766
▁19.	-4767
▁Ext	-4768
▁Fin	-4769
▁Fol	-4770
▁Har	-4771
▁Mac	-4772
▁May	-4773
▁Oct	-4774
▁SSU	-4775
▁Sav	-4776
▁Ste	-4777
▁dur	-4778
▁gly	-4779
▁leg	-4780
▁mor	-4781
▁raw	-4782
▁sik	-4783
▁tri	-4784
▁why	-4785
-7885	-4786
-9173	-4787
.2003	-4788
cting	-4789
cycle	-4790
erson	-4791
hemat	-4792
imate	-4793
izing	-4794
known	-4795
lling	-4796
ogram	-4797
olism	-4798
orsky	-4799
plosb	-4800
worth	-4801
▁(13.	-4802
▁0113	-4803
▁1989	-4804
▁Auth	-4805
▁Book	-4806
▁Croy	-4807
▁Curr	-4808
▁Gall	-4809
▁Hard	-4810
▁Nash	-4811
▁anti	-4812
▁book	-4813
▁fitz	-4814
▁happ	-4815
▁hour	-4816
▁iron	-4817
▁mass	-4818
▁none	-4819
▁nort	-4820
▁pack	-4821
▁path	-4822
▁rsus	-4823
▁semi	-4824
▁unus	-4825
▁viol	-4826
▁ways	-4827
-01-05	-4828
Public	-4829
access	-4830
etting	-4831
ingdom	-4832
olding	-4833
▁1(1):	-4834
▁2001,	-4835
▁2018,	-4836
▁Carey	-4837
▁Child	-4838
▁Green	-4839
▁Medic	-4840
▁Sumat	-4841
▁World	-4842
▁cabin	-4843
▁delay	-4844
▁digit	-4845
▁flank	-4846
▁image	-4847
▁lanes	-4848
▁needs	-4849
▁oppos	-4850
▁reins	-4851
▁round	-4852
▁today	-4853
▁worth	-4854
cessful	-4855
igation	-4856
iolPLoS	-4857
patrick	-4858
▁became	-4859
▁behind	-4860
▁colomb	-4861
▁indent	-4862
▁issues	-4863
▁needed	-4864
▁obtain	-4865
▁paying	-4866
▁relate	-4867
▁showed	-4868
▁tempor	-4869
ferences	-4870
ogeneity	-4871
ustralia	-4872
▁Croydon	-4873
▁content	-4874
▁damping	-4875
▁efforts	-4876
▁freedom	-4877
▁genotyp	-4878
▁mediate	-4879
▁methods	-4880
▁perturb	-4881
▁premium	-4882
▁prevent	-4883
▁problem	-4884
▁produce	-4885
▁reasons	-4886
▁repairs	-4887
▁strains	-4888
▁transdu	-4889
▁vendors	-4890
▁ventral	-4891
-91731545	-4892
hematical	-4893
orizontal	-4894
pbioplosb	-4895
▁10.1371/	-4896
▁BiolPLoS	-4897
▁Research	-4898
▁Wildlife	-4899
▁advanced	-4900
▁canadian	-4901
▁football	-4902
▁gasoline	-4903
▁generate	-4904
▁hardware	-4905
▁progress	-4906
▁proposed	-4907
▁replaced	-4908
▁residues	-4909
▁scaffold	-4910
▁sikorsky	-4911
▁spectrum	-4912
▁tangible	-4913
reviations	-4914
uropeptide	-4915
▁Molecular	-4916
▁mandatory	-4917
▁membranes	-4918
▁metabolic	-4919
▁specified	-4920
▁typically	-4921
▁2021-01-05	-4922
▁containers	-4923
▁continuing	-4924
▁haplotypes	-4925
▁indicating	-4926
▁quantities	-4927
▁similarity	-4928
▁Escherichia	-4929
▁assumptions	-4930
▁chromosomal	-4931
▁comparative	-4932
▁demonstrate	-4933
▁fitzpatrick	-4934
▁initiatives	-4935
▁integration	-4936
▁reinsurance	-4937
1544-91731545	-4938
▁fluctuations	-4939
▁manufacturer	-4940
▁Biolpbioplosb	-4941
▁mitochondrial	-4942
▁experimentally	-4943
▁unsubordinated	-4944
.8	-4945
EP	-4946
GH	-4947
],	-4948
ew	-4949
ma	-4950
ys	-4951
21:	-4952
4%)	-4953
ESA	-4954
acy	-4955
ago	-4956
ani	-4957
att	-4958
axo	-4959
bur	-4960
ked	-4961
lla	-4962
ned	-4963
ocy	-4964
oid	-4965
oto	-4966
rew	-4967
rie	-4968
▁(9	-4969
▁85	-4970
▁CT	-4971
▁JC	-4972
▁MR	-4973
▁My	-4974
▁Of	-4975
00.0	-4976
EGFP	-4977
Gene	-4978
ales	-4979
anth	-4980
bert	-4981
cash	-4982
ches	-4983
deed	-4984
down	-4985
oman	-4986
orre	-4987
oung	-4988
▁$25	-4989
▁0.0	-4990
▁000	-4991
▁2).	-4992
▁28.	-4993
▁30%	-4994
▁364	-4995
▁750	-4996
▁Abb	-4997
▁Ass	-4998
▁FFT	-4999
▁GTP	-5000
▁Her	-5001
▁Lee	-5002
▁Nam	-5003
▁Reg	-5004
▁Rev	-5005
▁SJs	-5006
▁Way	-5007
▁ago	-5008
▁cho	-5009
▁dil	-5010
▁eas	-5011
▁led	-5012
▁rif	-5013
cised	-5014
erior	-5015
etary	-5016
eties	-5017
ginia	-5018
illed	-5019
level	-5020
nance	-5021
▁$0.2	-5022
▁Dist	-5023
▁Play	-5024
▁Proc	-5025
▁RESA	-5026
▁Such	-5027
▁Wigg	-5028
▁docu	-5029
▁educ	-5030
▁exec	-5031
▁find	-5032
▁fire	-5033
▁gave	-5034
▁leth	-5035
▁mamm	-5036
▁past	-5037
▁pers	-5038
▁seed	-5039
▁stri	-5040
ansion	-5041
credit	-5042
ibrium	-5043
ichler	-5044
likely	-5045
observ	-5046
retire	-5047
selves	-5048
▁$2014	-5049
▁1997;	-5050
▁2001.	-5051
▁2011?	-5052
▁River	-5053
▁areas	-5054
▁autom	-5055
▁cause	-5056
▁conte	-5057
▁enzym	-5058
▁explo	-5059
▁grand	-5060
▁hardy	-5061
▁minor	-5062
▁often	-5063
▁spent	-5064
ication	-5065
worthia	-5066
▁08:21:	-5067
▁Indeed	-5068
▁Phosph	-5069
▁august	-5070
▁caused	-5071
▁claims	-5072
▁closed	-5073
▁column	-5074
▁divest	-5075
▁driven	-5076
▁failed	-5077
▁having	-5078
▁hurric	-5079
▁length	-5080
▁longer	-5081
▁nation	-5082
▁nature	-5083
▁overex	-5084
▁rating	-5085
▁scores	-5086
▁sheets	-5087
▁things	-5088
▁versus	-5089
annually	-5090
chemical	-5091
▁Dataset	-5092
▁Further	-5093
▁History	-5094
▁Results	-5095
▁Wiggles	-5096
▁animals	-5097
▁authors	-5098
▁clearly	-5099
▁closure	-5100
▁concern	-5101
▁consequ	-5102
▁element	-5103
▁extends	-5104
▁extract	-5105
▁impacts	-5106
▁letters	-5107
▁monitor	-5108
▁ongoing	-5109
▁removed	-5110
▁sources	-5111
▁unusual	-5112
▁February	-5113
▁Phylogen	-5114
▁alliance	-5115
▁assembly	-5116
▁becoming	-5117
▁cabinets	-5118
▁declared	-5119
▁examined	-5120
▁excluded	-5121
▁indirect	-5122
▁lineages	-5123
▁merchant	-5124
▁offering	-5125
▁officers	-5126
▁ordinary	-5127
▁prospect	-5128
▁question	-5129
▁strategy	-5130
▁unobserv	-5131
retirement	-5132
▁Institute	-5133
▁Therefore	-5134
▁brokerage	-5135
▁conducted	-5136
▁expansion	-5137
▁immediate	-5138
▁incubated	-5139
▁lifecycle	-5140
▁questions	-5141
▁receptors	-5142
▁ribosomal	-5143
▁secondary	-5144
▁selection	-5145
▁substrate	-5146
▁variables	-5147
▁variation	-5148
onucleotide	-5149
▁Experiment	-5150
▁Salmonella	-5151
▁affiliates	-5152
▁characters	-5153
▁continuous	-5154
▁divergence	-5155
▁introduced	-5156
▁provisions	-5157
▁reductions	-5158
▁scientific	-5159
▁scientists	-5160
ribosylation	-5161
▁association	-5162
▁calculation	-5163
▁commodities	-5164
▁constructed	-5165
▁improvement	-5166
▁observation	-5167
▁opportunity	-5168
▁reconstruct	-5169
▁trophozoite	-5170
oprecipitated	-5171
▁corporations	-5172
▁counterparty	-5173
▁demonstrated	-5174
▁neuropeptide	-5175
▁organization	-5176
▁productivity	-5177
▁unobservable	-5178
▁Interestingly	-5179
▁heterogeneity	-5180
▁Wigglesworthia	-5181
▁reconstruction	-5182
.2	-5183
2%	-5184
3%	-5185
37	-5186
AA	-5187
AM	-5188
Ar	-5189
ev	-5190
ko	-5191
pi	-5192
yg	-5193
▁−	-5194
%))	-5195
1.3	-5196
12/	-5197
68)	-5198
8%)	-5199
ana	-5200
aud	-5201
che	-5202
cre	-5203
eff	-5204
elf	-5205
ica	-5206
lor	-5207
ots	-5208
ply	-5209
ser	-5210
tti	-5211
yle	-5212
zil	-5213
▁0,	-5214
▁41	-5215
▁43	-5216
▁5,	-5217
▁55	-5218
▁7,	-5219
▁71	-5220
▁86	-5221
▁Sy	-5222
▁aj	-5223
▁km	-5224
▁tw	-5225
8%).	-5226
aken	-5227
bash	-5228
eder	-5229
etts	-5230
inia	-5231
itch	-5232
paid	-5233
rand	-5234
ream	-5235
▁$35	-5236
▁$50	-5237
▁$6.	-5238
▁$8.	-5239
▁(%)	-5240
▁(4)	-5241
▁-13	-5242
▁11,	-5243
▁123	-5244
▁14,	-5245
▁22.	-5246
▁385	-5247
▁409	-5248
▁Got	-5249
▁Int	-5250
▁PBS	-5251
▁Rap	-5252
▁Spe	-5253
▁Sub	-5254
▁Tot	-5255
▁fda	-5256
▁gam	-5257
▁iii	-5258
▁men	-5259
▁mot	-5260
▁sol	-5261
▁sus	-5262
▁wal	-5263
achus	-5264
after	-5265
anine	-5266
annah	-5267
arent	-5268
artis	-5269
aster	-5270
fered	-5271
iable	-5272
idian	-5273
ingal	-5274
inois	-5275
iquit	-5276
ivery	-5277
olute	-5278
orgia	-5279
ounds	-5280
overn	-5281
pport	-5282
raine	-5283
rster	-5284
umors	-5285
usion	-5286
▁$1.1	-5287
▁(12.	-5288
▁1993	-5289
▁364-	-5290
▁4.8%	-5291
▁Char	-5292
▁Comp	-5293
▁Gell	-5294
▁Jeff	-5295
▁Natl	-5296
▁Over	-5297
▁Pear	-5298
▁Some	-5299
▁Yers	-5300
▁bear	-5301
▁inse	-5302
▁magn	-5303
▁nyse	-5304
▁otti	-5305
▁phys	-5306
▁rail	-5307
▁ring	-5308
▁room	-5309
▁said	-5310
▁side	-5311
▁sole	-5312
▁star	-5313
▁took	-5314
▁true	-5315
active	-5316
amsden	-5317
arters	-5318
employ	-5319
ervice	-5320
ifying	-5321
mitted	-5322
ricult	-5323
tagged	-5324
▁2002?	-5325
▁Brown	-5326
▁adequ	-5327
▁ajaxo	-5328
▁chann	-5329
▁crypt	-5330
▁democ	-5331
▁devon	-5332
▁emerg	-5333
▁facil	-5334
▁hedge	-5335
▁maxim	-5336
▁newly	-5337
▁orion	-5338
▁panel	-5339
▁repay	-5340
▁sampl	-5341
▁sells	-5342
▁takes	-5343
content	-5344
elfrich	-5345
issions	-5346
nthesis	-5347
▁Compar	-5348
▁Govern	-5349
▁Israel	-5350
▁School	-5351
▁accept	-5352
▁always	-5353
▁arrows	-5354
▁bottom	-5355
▁brains	-5356
▁brands	-5357
▁buffer	-5358
▁device	-5359
▁diffic	-5360
▁happen	-5361
▁latter	-5362
▁matter	-5363
▁output	-5364
▁placed	-5365
▁repaid	-5366
▁resale	-5367
▁robert	-5368
▁search	-5369
▁unless	-5370
▁vendor	-5371
etically	-5372
quarters	-5373
▁(4.8%).	-5374
▁Despite	-5375
▁Finally	-5376
▁Gellert	-5377
▁General	-5378
▁Pathway	-5379
▁Pearson	-5380
▁Rosbash	-5381
▁ancient	-5382
▁circuit	-5383
▁culture	-5384
▁defense	-5385
▁highest	-5386
▁kichler	-5387
▁mission	-5388
▁mondavi	-5389
▁opening	-5390
▁outlets	-5391
▁parasit	-5392
▁persist	-5393
▁players	-5394
▁rapidly	-5395
▁receive	-5396
▁shuttle	-5397
▁started	-5398
▁tonight	-5399
▁undergo	-5400
▁unknown	-5401
achusetts	-5402
imalarial	-5403
▁Confeder	-5404
▁Malaysia	-5405
▁Nameless	-5406
▁Savannah	-5407
▁Yersinia	-5408
▁adoption	-5409
▁aviation	-5410
▁balances	-5411
▁compares	-5412
▁criteria	-5413
▁delivery	-5414
▁excludes	-5415
▁implicit	-5416
▁involves	-5417
▁monitors	-5418
▁parallel	-5419
▁prepared	-5420
▁reducing	-5421
▁repeated	-5422
▁returned	-5423
▁revealed	-5424
▁transgen	-5425
▁affecting	-5426
▁dependent	-5427
▁depending	-5428
▁displayed	-5429
▁exercised	-5430
▁exposures	-5431
▁extremely	-5432
▁influence	-5433
▁mutations	-5434
▁orthologs	-5435
▁otherwise	-5436
▁president	-5437
▁regarding	-5438
▁satisfied	-5439
▁stability	-5440
▁varieties	-5441
erythrocyte	-5442
▁Department	-5443
▁deliveries	-5444
▁eliminated	-5445
▁expiration	-5446
▁inhibitory	-5447
▁sequencing	-5448
▁strategies	-5449
▁successful	-5450
▁supplement	-5451
▁biochemical	-5452
▁cooperation	-5453
▁corresponds	-5454
▁examination	-5455
▁observatory	-5456
▁possibility	-5457
▁rhythmicity	-5458
▁subsequently	-5459
▁transduction	-5460
▁Abbreviations	-5461
▁International	-5462
▁Recombination	-5463
▁authorization	-5464
▁contingencies	-5465
▁interpretation	-5466
▁representative	-5467
")	-5468
AC	-5469
IM	-5470
La	-5471
OC	-5472
RA	-5473
ha	-5474
hn	-5475
oy	-5476
5.2	-5477
7%)	-5478
8.1	-5479
ARF	-5480
GAL	-5481
RAG	-5482
aiw	-5483
cer	-5484
ida	-5485
kee	-5486
ken	-5487
nes	-5488
och	-5489
oly	-5490
pan	-5491
pre	-5492
uck	-5493
▁("	-5494
▁1–	-5495
▁80	-5496
▁92	-5497
▁97	-5498
▁99	-5499
▁Ak	-5500
▁DJ	-5501
▁EB	-5502
▁JE	-5503
▁MA	-5504
▁MJ	-5505
▁Ra	-5506
▁SC	-5507
▁ZT	-5508
▁bp	-5509
▁ec	-5510
▁eu	-5511
▁mm	-5512
▁mt	-5513
125%	-5514
GEFs	-5515
Renn	-5516
abah	-5517
abil	-5518
amed	-5519
coly	-5520
elan	-5521
erse	-5522
fare	-5523
gawa	-5524
ians	-5525
ills	-5526
ingu	-5527
irst	-5528
itar	-5529
mery	-5530
ocal	-5531
oned	-5532
onin	-5533
ozyg	-5534
racy	-5535
rees	-5536
road	-5537
stim	-5538
thur	-5539
uled	-5540
yond	-5541
▁$36	-5542
▁$44	-5543
▁$7.	-5544
▁$73	-5545
▁(23	-5546
▁(44	-5547
▁-30	-5548
▁106	-5549
▁129	-5550
▁31.	-5551
▁346	-5552
▁37.	-5553
▁5.0	-5554
▁App	-5555
▁CGH	-5556
▁Its	-5557
▁Mat	-5558
▁Put	-5559
▁RBC	-5560
▁Rob	-5561
▁Sac	-5562
▁TCA	-5563
▁arr	-5564
▁opt	-5565
▁sil	-5566
▁tal	-5567
▁ult	-5568
▁won	-5569
125%)	-5570
ctors	-5571
curve	-5572
eplay	-5573
force	-5574
icago	-5575
oning	-5576
oting	-5577
otiny	-5578
rence	-5579
scale	-5580
tings	-5581
▁$1.2	-5582
▁$119	-5583
▁$132	-5584
▁$369	-5585
▁(15.	-5586
▁100?	-5587
▁1862	-5588
▁1982	-5589
▁Data	-5590
▁Evol	-5591
▁From	-5592
▁Here	-5593
▁Lank	-5594
▁Work	-5595
▁capt	-5596
▁dele	-5597
▁fast	-5598
▁idea	-5599
▁owed	-5600
▁rare	-5601
▁sure	-5602
▁vast	-5603
ention	-5604
entive	-5605
inosit	-5606
issues	-5607
overed	-5608
restar	-5609
retion	-5610
unding	-5611
▁1996;	-5612
▁2004.	-5613
▁2008?	-5614
▁2018.	-5615
▁Extra	-5616
▁First	-5617
▁Genes	-5618
▁Thera	-5619
▁barre	-5620
▁beads	-5621
▁chain	-5622
▁cover	-5623
▁cytos	-5624
▁dates	-5625
▁dynam	-5626
▁exhib	-5627
▁force	-5628
▁melan	-5629
▁plain	-5630
▁serum	-5631
▁serve	-5632
▁staff	-5633
▁stopp	-5634
▁storm	-5635
▁tarif	-5636
▁wheat	-5637
▁young	-5638
inguish	-5639
insular	-5640
istered	-5641
istical	-5642
labeled	-5643
ogenous	-5644
running	-5645
ubiquit	-5646
▁2002),	-5647
▁Africa	-5648
▁Fingal	-5649
▁Museum	-5650
▁Second	-5651
▁Signal	-5652
▁Spacer	-5653
▁advant	-5654
▁aspect	-5655
▁battle	-5656
▁behalf	-5657
▁billed	-5658
▁brazil	-5659
▁broken	-5660
▁career	-5661
▁defend	-5662
▁enable	-5663
▁eukary	-5664
▁filing	-5665
▁herein	-5666
▁issuer	-5667
▁launch	-5668
▁middle	-5669
▁milest	-5670
▁negoti	-5671
▁status	-5672
▁streak	-5673
▁traits	-5674
▁trends	-5675
employee	-5676
paration	-5677
perature	-5678
▁Immunol	-5679
▁Medical	-5680
▁Sanford	-5681
▁affects	-5682
▁alleles	-5683
▁amended	-5684
▁assayed	-5685
▁changed	-5686
▁confirm	-5687
▁context	-5688
▁council	-5689
▁devices	-5690
▁divided	-5691
▁engaged	-5692
▁enzymes	-5693
▁exclude	-5694
▁farmers	-5695
▁finally	-5696
▁glycoly	-5697
▁interse	-5698
▁kinetic	-5699
▁leading	-5700
▁meeting	-5701
▁proport	-5702
▁reached	-5703
▁satisfy	-5704
▁studied	-5705
▁tissues	-5706
▁variety	-5707
atellites	-5708
▁Function	-5709
▁absolute	-5710
▁adequate	-5711
▁agencies	-5712
▁apparent	-5713
▁concaten	-5714
▁deterior	-5715
▁discover	-5716
▁followed	-5717
▁fraction	-5718
▁genetics	-5719
▁homology	-5720
▁northern	-5721
▁opposite	-5722
▁remained	-5723
▁soldiers	-5724
▁staining	-5725
▁strength	-5726
▁Evolution	-5727
▁candidate	-5728
▁democracy	-5729
▁difficult	-5730
▁incentive	-5731
▁induction	-5732
▁initiated	-5733
▁intensity	-5734
▁involving	-5735
▁knowledge	-5736
▁parasites	-5737
▁resistant	-5738
▁sensitive	-5739
▁temporary	-5740
▁transient	-5741
otechnology	-5742
▁assignment	-5743
▁commission	-5744
▁detectable	-5745
▁endogenous	-5746
▁foundation	-5747
▁guarantees	-5748
▁horizontal	-5749
▁litigation	-5750
▁robustness	-5751
▁simulation	-5752
▁themselves	-5753
▁thereafter	-5754
▁timepoints	-5755
▁variations	-5756
▁Furthermore	-5757
▁anticipated	-5758
▁contributed	-5759
▁measurement	-5760
▁mississippi	-5761
▁phylogenies	-5762
▁principally	-5763
▁receivables	-5764
▁replication	-5765
▁transferred	-5766
▁uncertainty	-5767
▁antimalarial	-5768
▁capabilities	-5769
▁organizations	-5770
▁Concentrations	-5771
▁microsatellite	-5772
%/	-5773
08	-5774
3/	-5775
DB	-5776
XT	-5777
gl	-5778
ka	-5779
nc	-5780
0.8	-5781
1.9	-5782
156	-5783
175	-5784
2%)	-5785
2.3	-5786
212	-5787
3.8	-5788
405	-5789
5.3	-5790
8.0	-5791
Fig	-5792
GSK	-5793
IFA	-5794
III	-5795
Sac	-5796
UAS	-5797
bit	-5798
bum	-5799
eso	-5800
kin	-5801
now	-5802
oDB	-5803
onn	-5804
osa	-5805
osp	-5806
ram	-5807
ror	-5808
tds	-5809
unk	-5810
uos	-5811
yal	-5812
−1,	-5813
▁-7	-5814
▁1/	-5815
▁3-	-5816
▁44	-5817
▁54	-5818
▁69	-5819
▁9,	-5820
▁AS	-5821
▁CA	-5822
▁Em	-5823
▁Ge	-5824
▁JM	-5825
▁Lo	-5826
▁MB	-5827
▁NJ	-5828
▁Pa	-5829
▁Sk	-5830
▁Uk	-5831
▁ae	-5832
▁ca	-5833
▁ce	-5834
▁cp	-5835
▁hr	-5836
▁rd	-5837
▁ty	-5838
▁ye	-5839
amas	-5840
asis	-5841
burg	-5842
comp	-5843
cons	-5844
elle	-5845
fect	-5846
gram	-5847
ican	-5848
ises	-5849
osen	-5850
pers	-5851
rome	-5852
then	-5853
user	-5854
vine	-5855
wick	-5856
ynop	-5857
▁$26	-5858
▁$81	-5859
▁1).	-5860
▁107	-5861
▁110	-5862
▁120	-5863
▁15%	-5864
▁178	-5865
▁203	-5866
▁33.	-5867
▁35%	-5868
▁70%	-5869
▁Ann	-5870
▁Ant	-5871
▁Bec	-5872
▁Dif	-5873
▁Edm	-5874
▁Eng	-5875
▁His	-5876
▁Mar	-5877
▁Mut	-5878
▁Now	-5879
▁Pit	-5880
▁Pre	-5881
▁RAP	-5882
▁TXT	-5883
▁ace	-5884
▁ben	-5885
▁che	-5886
▁frb	-5887
▁gwh	-5888
▁hpi	-5889
▁ice	-5890
▁lig	-5891
▁map	-5892
▁obv	-5893
▁tit	-5894
▁und	-5895
aiwan	-5896
aking	-5897
allen	-5898
althy	-5899
aneko	-5900
anson	-5901
aubin	-5902
chman	-5903
eling	-5904
ibrio	-5905
inear	-5906
ipped	-5907
istoc	-5908
itate	-5909
iture	-5910
ivers	-5911
lands	-5912
orsal	-5913
orter	-5914
ously	-5915
sures	-5916
templ	-5917
trans	-5918
▁$-0.	-5919
▁$0.3	-5920
▁$129	-5921
▁$2.2	-5922
▁$200	-5923
▁$97.	-5924
▁(5%)	-5925
▁0.00	-5926
▁1923	-5927
▁1992	-5928
▁Booo	-5929
▁Cong	-5930
▁Disc	-5931
▁Dsha	-5932
▁FIFA	-5933
▁Fred	-5934
▁June	-5935
▁Only	-5936
▁Pope	-5937
▁Stim	-5938
▁What	-5939
▁Will	-5940
▁agon	-5941
▁appe	-5942
▁auto	-5943
▁aver	-5944
▁card	-5945
▁door	-5946
▁espp	-5947
▁fall	-5948
▁firm	-5949
▁laws	-5950
▁ones	-5951
▁peso	-5952
▁ptds	-5953
▁text	-5954
▁told	-5955
ardner	-5956
asmoDB	-5957
ciable	-5958
itions	-5959
nesota	-5960
thanol	-5961
ugmann	-5962
▁(35%)	-5963
▁1999;	-5964
▁2009?	-5965
▁2016?	-5966
▁4.25%	-5967
▁Genet	-5968
▁Given	-5969
▁James	-5970
▁Mason	-5971
▁Vatic	-5972
▁award	-5973
▁biosy	-5974
▁bring	-5975
▁civil	-5976
▁colle	-5977
▁field	-5978
▁gives	-5979
▁house	-5980
▁hover	-5981
▁locks	-5982
▁locus	-5983
▁owner	-5984
▁pages	-5985
▁polit	-5986
▁roles	-5987
▁semic	-5988
▁teams	-5989
▁thres	-5990
▁wages	-5991
amounts	-5992
ciences	-5993
ogaster	-5994
reeding	-5995
ressing	-5996
ynopsis	-5997
▁12/29/	-5998
▁1996).	-5999
▁Carter	-6000
▁Microb	-6001
▁Vibrio	-6002
▁agency	-6003
▁agreed	-6004
▁attack	-6005
▁become	-6006
▁beyond	-6007
▁border	-6008
▁chosen	-6009
▁cycles	-6010
▁double	-6011
▁effort	-6012
▁estate	-6013
▁explan	-6014
▁figure	-6015
▁funded	-6016
▁inches	-6017
▁mainly	-6018
▁module	-6019
▁partly	-6020
▁possib	-6021
▁propri	-6022
▁quoted	-6023
▁ranges	-6024
▁sample	-6025
▁scored	-6026
▁simply	-6027
▁themes	-6028
▁unable	-6029
Fernando	-6030
Genetics	-6031
Genomics	-6032
ationary	-6033
interest	-6034
▁(4.25%)	-6035
▁Because	-6036
▁Develop	-6037
▁Instead	-6038
▁Sumatra	-6039
▁Swanson	-6040
▁Therapy	-6041
▁Ukraine	-6042
▁achieve	-6043
▁appears	-6044
▁arising	-6045
▁biology	-6046
▁channel	-6047
▁command	-6048
▁compare	-6049
▁conduct	-6050
▁defects	-6051
▁diluted	-6052
▁enhance	-6053
▁equally	-6054
▁futures	-6055
▁holding	-6056
▁involve	-6057
▁kingdom	-6058
▁neither	-6059
▁obvious	-6060
▁offered	-6061
▁oncogen	-6062
▁planned	-6063
▁popular	-6064
▁ranging	-6065
▁retired	-6066
▁sensors	-6067
▁symbion	-6068
▁towards	-6069
▁treated	-6070
▁warfare	-6071
ciliation	-6072
ucleotide	-6073
▁Congress	-6074
▁antibody	-6075
▁chemical	-6076
▁clusters	-6077
▁computed	-6078
▁conflict	-6079
▁contempl	-6080
▁creating	-6081
▁decision	-6082
▁detailed	-6083
▁duration	-6084
▁gameplay	-6085
▁illinois	-6086
▁measures	-6087
▁numerous	-6088
▁ordnance	-6089
▁overview	-6090
▁partners	-6091
▁patterns	-6092
▁quantity	-6093
▁railroad	-6094
▁rejected	-6095
▁resource	-6096
▁sampling	-6097
▁striking	-6098
▁warrants	-6099
Department	-6100
▁amplified	-6101
▁assembled	-6102
▁colombian	-6103
▁defensive	-6104
▁direction	-6105
▁fragments	-6106
▁homologue	-6107
▁improving	-6108
▁inception	-6109
▁initially	-6110
▁interests	-6111
▁isolation	-6112
▁localized	-6113
▁ownership	-6114
▁permitted	-6115
▁threshold	-6116
▁treatment	-6117
▁waterford	-6118
▁Expression	-6119
▁assistance	-6120
▁controlled	-6121
▁depository	-6122
▁evaluation	-6123
▁financials	-6124
▁importance	-6125
▁indentures	-6126
▁indicative	-6127
▁metabolism	-6128
▁phosphatid	-6129
▁reinvested	-6130
▁satellites	-6131
▁summarizes	-6132
▁supporting	-6133
▁translated	-6134
▁competition	-6135
▁considering	-6136
▁cytoplasmic	-6137
▁equilibrium	-6138
▁erythrocyte	-6139
▁expectation	-6140
▁individuals	-6141
▁necessarily	-6142
▁noncritical	-6143
▁operational	-6144
▁potentially	-6145
▁projections	-6146
▁settlements	-6147
▁additionally	-6148
▁biosynthesis	-6149
▁contribution	-6150
▁melanogaster	-6151
▁nonconsensus	-6152
▁presidential	-6153
▁substitution	-6154
▁intracellular	-6155
▁characteristic	-6156
▁reconciliation	-6157
71	-6158
AT	-6159
BO	-6160
ER	-6161
IN	-6162
RE	-6163
SC	-6164
Sh	-6165
bo	-6166
iN	-6167
td	-6168
uc	-6169
▁’	-6170
"),	-6171
0.2	-6172
2.5	-6173
4.5	-6174
7.2	-6175
8.2	-6176
8.9	-6177
AGE	-6178
Dsh	-6179
SUB	-6180
ait	-6181
aut	-6182
cib	-6183
ett	-6184
ham	-6185
hic	-6186
iah	-6187
las	-6188
nce	-6189
new	-6190
oph	-6191
osh	-6192
ped	-6193
riz	-6194
sen	-6195
uik	-6196
▁28	-6197
▁35	-6198
▁4,	-6199
▁52	-6200
▁59	-6201
▁62	-6202
▁63	-6203
▁64	-6204
▁87	-6205
▁BL	-6206
▁EL	-6207
▁GE	-6208
▁JD	-6209
▁Kl	-6210
▁Na	-6211
▁PA	-6212
▁da	-6213
▁sb	-6214
PAGE	-6215
aces	-6216
adel	-6217
avid	-6218
bine	-6219
copy	-6220
gans	-6221
hart	-6222
icon	-6223
ided	-6224
inal	-6225
loch	-6226
look	-6227
mans	-6228
ondu	-6229
orad	-6230
ords	-6231
ouis	-6232
risk	-6233
rupt	-6234
sell	-6235
umar	-6236
umor	-6237
uros	-6238
utes	-6239
well	-6240
wsky	-6241
▁$22	-6242
▁$85	-6243
▁(20	-6244
▁(33	-6245
▁(7)	-6246
▁128	-6247
▁17.	-6248
▁198	-6249
▁23,	-6250
▁23-	-6251
▁25%	-6252
▁25.	-6253
▁275	-6254
▁4).	-6255
▁43.	-6256
▁700	-6257
▁Ast	-6258
▁Bel	-6259
▁Bin	-6260
▁Bro	-6261
▁Bul	-6262
▁Det	-6263
▁LNv	-6264
▁Lie	-6265
▁Los	-6266
▁Rem	-6267
▁SDS	-6268
▁arg	-6269
▁bit	-6270
▁epc	-6271
▁fle	-6272
▁got	-6273
▁har	-6274
▁inj	-6275
▁lay	-6276
▁mur	-6277
▁nar	-6278
▁plc	-6279
-2013	-6280
alian	-6281
appro	-6282
atics	-6283
decre	-6284
ector	-6285
erick	-6286
iller	-6287
immun	-6288
inate	-6289
isons	-6290
lived	-6291
odies	-6292
ondon	-6293
opter	-6294
organ	-6295
orian	-6296
oring	-6297
plete	-6298
pring	-6299
rears	-6300
▁$0.9	-6301
▁$1.8	-6302
▁1920	-6303
▁1990	-6304
▁Corn	-6305
▁EMBO	-6306
▁Each	-6307
▁Greg	-6308
▁Like	-6309
▁Mass	-6310
▁Prev	-6311
▁Shop	-6312
▁Sund	-6313
▁bias	-6314
▁body	-6315
▁cDNA	-6316
▁chip	-6317
▁conj	-6318
▁cris	-6319
▁dead	-6320
▁fasb	-6321
▁felt	-6322
▁gels	-6323
▁http	-6324
▁insp	-6325
▁lowe	-6326
▁phot	-6327
▁rule	-6328
▁taxa	-6329
▁vert	-6330
▁vote	-6331
▁wall	-6332
Arthur	-6333
backed	-6334
cluded	-6335
enders	-6336
ermont	-6337
everal	-6338
iently	-6339
inking	-6340
tsburg	-6341
uikart	-6342
umably	-6343
undred	-6344
urally	-6345
▁(15%)	-6346
▁100.0	-6347
▁Based	-6348
▁Cells	-6349
▁Clock	-6350
▁Colle	-6351
▁Nucle	-6352
▁Other	-6353
▁PfSUB	-6354
▁Sabah	-6355
▁Stane	-6356
▁White	-6357
▁actin	-6358
▁adapt	-6359
▁album	-6360
▁apply	-6361
▁armed	-6362
▁array	-6363
▁cance	-6364
▁centr	-6365
▁coinc	-6366
▁colon	-6367
▁conce	-6368
▁death	-6369
▁fewer	-6370
▁fifth	-6371
▁goals	-6372
▁goalt	-6373
▁gradu	-6374
▁heavy	-6375
▁helic	-6376
▁hence	-6377
▁japan	-6378
▁joint	-6379
▁label	-6380
▁lifes	-6381
▁manip	-6382
▁match	-6383
▁named	-6384
▁neigh	-6385
▁owing	-6386
▁scale	-6387
▁sharp	-6388
▁simpl	-6389
▁spain	-6390
▁synth	-6391
▁taxon	-6392
▁unexp	-6393
▁worms	-6394
▁worst	-6395
Station	-6396
atively	-6397
atories	-6398
collect	-6399
isation	-6400
iveness	-6401
leistoc	-6402
ligible	-6403
ochrome	-6404
vention	-6405
▁$55833	-6406
▁2000),	-6407
▁August	-6408
▁Europe	-6409
▁Ochman	-6410
▁Robust	-6411
▁Trends	-6412
▁causes	-6413
▁chance	-6414
▁circum	-6415
▁clocks	-6416
▁compli	-6417
▁exists	-6418
▁grants	-6419
▁hedged	-6420
▁island	-6421
▁liable	-6422
▁linear	-6423
▁modern	-6424
▁narrow	-6425
▁neuron	-6426
▁postem	-6427
▁predom	-6428
▁refund	-6429
▁retain	-6430
▁rumors	-6431
▁shared	-6432
▁social	-6433
▁square	-6434
▁string	-6435
▁taiwan	-6436
▁visual	-6437
decrease	-6438
ettinger	-6439
ructural	-6440
▁African	-6441
▁Effects	-6442
▁Several	-6443
▁Western	-6444
▁acquire	-6445
▁advance	-6446
▁arrears	-6447
▁blocked	-6448
▁challen	-6449
▁dispose	-6450
▁economy	-6451
▁elegans	-6452
▁ethanol	-6453
▁focused	-6454
▁friends	-6455
▁identif	-6456
▁precise	-6457
▁reduces	-6458
▁shorter	-6459
▁spacers	-6460
▁subunit	-6461
▁summary	-6462
▁sustain	-6463
▁tariffs	-6464
▁traffic	-6465
▁ubiquit	-6466
▁wealthy	-6467
Molecular	-6468
mentation	-6469
▁Moreover	-6470
▁accurate	-6471
▁billions	-6472
▁consumer	-6473
▁finished	-6474
▁floating	-6475
▁inactive	-6476
▁missions	-6477
▁modified	-6478
▁pairwise	-6479
▁probably	-6480
▁publicly	-6481
▁purified	-6482
▁resolved	-6483
▁schizont	-6484
▁sourcing	-6485
▁supplier	-6486
▁temporal	-6487
▁watching	-6488
leistocene	-6489
rophozoite	-6490
▁Christian	-6491
▁Frederick	-6492
▁MacArthur	-6493
▁Oettinger	-6494
▁Stanewsky	-6495
▁allocated	-6496
▁annotated	-6497
▁criterion	-6498
▁embryonic	-6499
▁heterozyg	-6500
▁hurricane	-6501
▁mammalian	-6502
▁offerings	-6503
▁recording	-6504
▁recovered	-6505
▁relatives	-6506
▁semicondu	-6507
▁separated	-6508
▁suggested	-6509
▁Foundation	-6510
▁Functional	-6511
▁categories	-6512
▁developing	-6513
▁electronic	-6514
▁experience	-6515
▁goaltender	-6516
▁peninsular	-6517
▁registered	-6518
▁statistics	-6519
▁unexpected	-6520
collectively	-6521
▁PlayStation	-6522
▁commissions	-6523
▁conjunction	-6524
▁description	-6525
▁disclosures	-6526
▁effectively	-6527
▁frequencies	-6528
▁genetically	-6529
▁identifying	-6530
▁implemented	-6531
▁integrating	-6532
▁orthologous	-6533
▁participant	-6534
▁qualitative	-6535
▁regulations	-6536
▁specialized	-6537
▁specificity	-6538
▁speculative	-6539
▁statistical	-6540
▁temperature	-6541
▁transiently	-6542
▁variability	-6543
▁cryptochrome	-6544
▁differential	-6545
▁introduction	-6546
▁negotiations	-6547
▁Massachusetts	-6548
▁carryforwards	-6549
▁merchandising	-6550
▁perturbations	-6551
▁postembryonic	-6552
phosphorylation	-6553
▁representation	-6554
):	-6555
2/	-6556
74	-6557
EB	-6558
IP	-6559
MC	-6560
TA	-6561
TC	-6562
bh	-6563
do	-6564
ga	-6565
gi	-6566
ij	-6567
la	-6568
xy	-6569
za	-6570
-10	-6571
1),	-6572
100	-6573
245	-6574
250	-6575
3.9	-6576
303	-6577
4.4	-6578
4.7	-6579
450	-6580
57)	-6581
6.6	-6582
859	-6583
APC	-6584
Res	-6585
aem	-6586
aka	-6587
ald	-6588
ano	-6589
ape	-6590
arl	-6591
bsd	-6592
cue	-6593
cyc	-6594
dem	-6595
hyd	-6596
igu	-6597
jac	-6598
lap	-6599
lim	-6600
lin	-6601
mes	-6602
mph	-6603
ole	-6604
ony	-6605
oxy	-6606
syl	-6607
ucl	-6608
unt	-6609
ute	-6610
viN	-6611
win	-6612
yes	-6613
zte	-6614
▁(0	-6615
▁38	-6616
▁65	-6617
▁66	-6618
▁AM	-6619
▁CJ	-6620
▁DH	-6621
▁Id	-6622
▁MW	-6623
▁PF	-6624
▁RJ	-6625
▁ft	-6626
▁mh	-6627
▁py	-6628
▁tv	-6629
0.50	-6630
1.30	-6631
2013	-6632
ague	-6633
amat	-6634
arly	-6635
aste	-6636
atab	-6637
aulo	-6638
conf	-6639
free	-6640
isen	-6641
lier	-6642
nall	-6643
nyse	-6644
orot	-6645
osin	-6646
osts	-6647
reek	-6648
rend	-6649
rics	-6650
rill	-6651
sine	-6652
sust	-6653
teen	-6654
trop	-6655
turn	-6656
uant	-6657
ucky	-6658
uick	-6659
▁$52	-6660
▁$99	-6661
▁(42	-6662
▁-12	-6663
▁-36	-6664
▁0.4	-6665
▁101	-6666
▁115	-6667
▁121	-6668
▁126	-6669
▁141	-6670
▁16,	-6671
▁16.	-6672
▁2.5	-6673
▁212	-6674
▁249	-6675
▁262	-6676
▁270	-6677
▁274	-6678
▁3).	-6679
▁4.6	-6680
▁423	-6681
▁48.	-6682
▁Art	-6683
▁Box	-6684
▁CYC	-6685
▁DOC	-6686
▁EBA	-6687
▁GFP	-6688
▁Gaz	-6689
▁Gol	-6690
▁Gro	-6691
▁McC	-6692
▁Pot	-6693
▁Rel	-6694
▁Sak	-6695
▁Sri	-6696
▁Sur	-6697
▁air	-6698
▁aph	-6699
▁bip	-6700
▁fer	-6701
▁hum	-6702
▁job	-6703
▁lcs	-6704
▁lot	-6705
▁mit	-6706
▁mob	-6707
▁mom	-6708
▁nor	-6709
▁occ	-6710
▁pdl	-6711
▁ppg	-6712
▁rbh	-6713
▁ssa	-6714
▁too	-6715
▁ver	-6716
▁yan	-6717
aught	-6718
clays	-6719
ctive	-6720
epend	-6721
exual	-6722
gment	-6723
hetic	-6724
ilipp	-6725
inity	-6726
iomed	-6727
ipher	-6728
iques	-6729
iring	-6730
irmed	-6731
osymb	-6732
otech	-6733
phalt	-6734
prise	-6735
reted	-6736
stock	-6737
unded	-6738
utila	-6739
vania	-6740
vitro	-6741
where	-6742
zteca	-6743
▁$108	-6744
▁$135	-6745
▁$149	-6746
▁$18.	-6747
▁$2.0	-6748
▁$2.5	-6749
▁$25.	-6750
▁$3.2	-6751
▁$500	-6752
▁1861	-6753
▁1983	-6754
▁1986	-6755
▁2036	-6756
▁2046	-6757
▁Ange	-6758
▁Army	-6759
▁Camb	-6760
▁Capt	-6761
▁Club	-6762
▁East	-6763
▁Ecol	-6764
▁Eucl	-6765
▁Fund	-6766
▁Look	-6767
▁Mary	-6768
▁Note	-6769
▁Pred	-6770
▁Prot	-6771
▁RBCs	-6772
▁Well	-6773
▁alex	-6774
▁bind	-6775
▁brit	-6776
▁casc	-6777
▁code	-6778
▁dbsd	-6779
▁deem	-6780
▁diff	-6781
▁east	-6782
▁guns	-6783
▁hier	-6784
▁john	-6785
▁kent	-6786
▁lost	-6787
▁pept	-6788
▁pest	-6789
▁ppas	-6790
▁prud	-6791
▁rank	-6792
▁reag	-6793
▁rent	-6794
▁save	-6795
▁soon	-6796
▁spot	-6797
▁ster	-6798
▁stre	-6799
▁suff	-6800
▁swap	-6801
▁|.43	-6802
altier	-6803
amatsu	-6804
cedent	-6805
ciated	-6806
contro	-6807
ennsyl	-6808
etrole	-6809
fected	-6810
graded	-6811
icated	-6812
igious	-6813
income	-6814
ington	-6815
isting	-6816
jacent	-6817
lossop	-6818
lowing	-6819
manage	-6820
orothy	-6821
rained	-6822
ranged	-6823
rasite	-6824
ressed	-6825
ridges	-6826
ritory	-6827
rought	-6828
ruptcy	-6829
series	-6830
stream	-6831
thmans	-6832
trough	-6833
ularly	-6834
vasion	-6835
▁$.455	-6836
▁$116.	-6837
▁13.0%	-6838
▁2002)	-6839
▁2004?	-6840
▁2005?	-6841
▁2019)	-6842
▁3.50%	-6843
▁Acids	-6844
▁China	-6845
▁Emery	-6846
▁Human	-6847
▁Ident	-6848
▁India	-6849
▁Inter	-6850
▁Jones	-6851
▁Kings	-6852
▁Lanka	-6853
▁Louis	-6854
▁acids	-6855
▁amino	-6856
▁ammun	-6857
▁armor	-6858
▁asked	-6859
▁bears	-6860
▁binds	-6861
▁books	-6862
▁chart	-6863
▁datab	-6864
▁denom	-6865
▁depot	-6866
▁disru	-6867
▁doors	-6868
▁exact	-6869
▁favor	-6870
▁fleet	-6871
▁flint	-6872
▁foods	-6873
▁front	-6874
▁grade	-6875
▁hours	-6876
▁infer	-6877
▁innov	-6878
▁leads	-6879
▁makes	-6880
▁morph	-6881
▁music	-6882
▁names	-6883
▁novel	-6884
▁pract	-6885
▁proxy	-6886
▁ready	-6887
▁refin	-6888
▁renov	-6889
▁rents	-6890
▁rules	-6891
▁sense	-6892
▁spons	-6893
▁squad	-6894
▁steam	-6895
▁trend	-6896
▁turns	-6897
▁vehic	-6898
▁votes	-6899
▁white	-6900
▁yeast	-6901
▁|.450	-6902
artisan	-6903
audited	-6904
ificial	-6905
illions	-6906
lotting	-6907
ogarten	-6908
perform	-6909
prising	-6910
process	-6911
▁$-0.68	-6912
▁(0.68)	-6913
▁(10%),	-6914
▁(2003)	-6915
▁1.375%	-6916
▁2019).	-6917
▁3.375%	-6918
▁Andrew	-6919
▁Bacter	-6920
▁Bridge	-6921
▁Daubin	-6922
▁Howson	-6923
▁Oscill	-6924
▁Totten	-6925
▁allele	-6926
▁azteca	-6927
▁branch	-6928
▁coming	-6929
▁crisis	-6930
▁denote	-6931
▁dorsal	-6932
▁easily	-6933
▁formal	-6934
▁holder	-6935
▁images	-6936
▁impose	-6937
▁insect	-6938
▁limits	-6939
▁losing	-6940
▁microb	-6941
▁moment	-6942
▁mostly	-6943
▁mother	-6944
▁object	-6945
▁opened	-6946
▁perman	-6947
▁permit	-6948
▁reform	-6949
▁rhythm	-6950
▁seller	-6951
▁served	-6952
▁stabil	-6953
▁subspe	-6954
▁themed	-6955
▁washed	-6956
▁yankee	-6957
▁yields	-6958
........	-6959
asmodial	-6960
etroleum	-6961
financed	-6962
lational	-6963
millions	-6964
ographic	-6965
targeted	-6966
tropaulo	-6967
▁(13.0%)	-6968
▁(3.50%)	-6969
▁Article	-6970
▁Binding	-6971
▁Bulloch	-6972
▁Control	-6973
▁Dorothy	-6974
▁Dunning	-6975
▁Gallian	-6976
▁Genomic	-6977
▁Insulin	-6978
▁Nucleic	-6979
▁Support	-6980
▁Vatican	-6981
▁alexion	-6982
▁asexual	-6983
▁aspects	-6984
▁asphalt	-6985
▁biggest	-6986
▁biotiny	-6987
▁brought	-6988
▁caption	-6989
▁central	-6990
▁charged	-6991
▁chicago	-6992
▁denotes	-6993
▁describ	-6994
▁edwards	-6995
▁expects	-6996
▁failure	-6997
▁finance	-6998
▁georgia	-6999
▁lacking	-7000
▁maximal	-7001
▁maximus	-7002
▁microsc	-7003
▁minutes	-7004
▁partial	-7005
▁patents	-7006
▁profits	-7007
▁propose	-7008
▁relates	-7009
▁remains	-7010
▁reviews	-7011
▁taxable	-7012
▁vermont	-7013
▁western	-7014
conserved	-7015
ependence	-7016
ributions	-7017
roduction	-7018
▁(1.375%)	-7019
▁(3.375%)	-7020
▁Asthetic	-7021
▁Fernando	-7022
▁Genetics	-7023
▁Medicine	-7024
▁Previous	-7025
▁allowing	-7026
▁ancestor	-7027
▁assessed	-7028
▁barclays	-7029
▁believed	-7030
▁circumst	-7031
▁computer	-7032
▁confocal	-7033
▁congress	-7034
▁darkness	-7035
▁dominant	-7036
▁effected	-7037
▁encoding	-7038
▁fragment	-7039
▁greatest	-7040
▁hierarch	-7041
▁imported	-7042
▁inhibits	-7043
▁kentucky	-7044
▁neuronal	-7045
▁notional	-7046
▁overturn	-7047
▁peripher	-7048
▁regional	-7049
▁regulate	-7050
▁sections	-7051
▁synthase	-7052
▁targeted	-7053
▁trillion	-7054
▁unlikely	-7055
▁virginia	-7056
management	-7057
▁Australia	-7058
▁Euclidian	-7059
▁Microbiol	-7060
▁Sequences	-7061
▁Similarly	-7062
▁advantage	-7063
▁attempted	-7064
▁converted	-7065
▁correlate	-7066
▁cytosolic	-7067
▁education	-7068
▁efficient	-7069
▁executive	-7070
▁extension	-7071
▁genotypes	-7072
▁inhibited	-7073
▁lethality	-7074
▁magnitude	-7075
▁maintains	-7076
▁minnesota	-7077
▁movements	-7078
▁naturally	-7079
▁parameter	-7080
▁political	-7081
▁principle	-7082
▁providing	-7083
▁recombine	-7084
▁recruited	-7085
▁scheduled	-7086
▁specialty	-7087
▁standards	-7088
▁terrestar	-7089
▁transfers	-7090
▁transform	-7091
ennsylvania	-7092
performance	-7093
▁Discussion	-7094
▁Dunnington	-7095
▁absolutely	-7096
▁ammunition	-7097
▁artificial	-7098
▁bankruptcy	-7099
▁bottleneck	-7100
▁california	-7101
▁collection	-7102
▁complement	-7103
▁comprising	-7104
▁conclusion	-7105
▁correcting	-7106
▁disclosure	-7107
▁equivalent	-7108
▁helicopter	-7109
▁marketable	-7110
▁normalized	-7111
▁plasmodial	-7112
▁presumably	-7113
▁proceeding	-7114
▁proportion	-7115
▁reportable	-7116
▁reproducib	-7117
▁resistance	-7118
▁strengthen	-7119
▁techniques	-7120
▁Confederate	-7121
▁Pleistocene	-7122
▁Stimulation	-7123
▁composition	-7124
▁continually	-7125
▁depreciable	-7126
▁differently	-7127
▁eletropaulo	-7128
▁environment	-7129
▁essentially	-7130
▁nonemployee	-7131
▁phosphatase	-7132
▁proprietary	-7133
▁recombinant	-7134
▁recombinase	-7135
▁spectrasite	-7136
▁transcripts	-7137
▁contributing	-7138
▁divestitures	-7139
▁governmental	-7140
▁headquarters	-7141
▁laboratories	-7142
▁lifesciences	-7143
▁mathematical	-7144
▁participants	-7145
▁Contributions	-7146
▁collaboration	-7147
▁collaborative	-7148
▁independently	-7149
▁manufacturers	-7150
▁semiconductor	-7151
▁classification	-7152
▁nonperformance	-7153
▁overexpression	-7154
▁ribonucleotide	-7155
',	-7156
58	-7157
Im	-7158
LE	-7159
MG	-7160
ST	-7161
YL	-7162
%).	-7163
-1,	-7164
0.5	-7165
0.6	-7166
013	-7167
1.2	-7168
154	-7169
2.7	-7170
280	-7171
3.3	-7172
483	-7173
8.4	-7174
86)	-7175
875	-7176
EBB	-7177
Lva	-7178
New	-7179
Sal	-7180
ahl	-7181
awn	-7182
ena	-7183
ete	-7184
ike	-7185
max	-7186
nch	-7187
ney	-7188
pay	-7189
pty	-7190
rap	-7191
sim	-7192
tes	-7193
tis	-7194
top	-7195
tra	-7196
two	-7197
uki	-7198
war	-7199
▁49	-7200
▁5)	-7201
▁81	-7202
▁83	-7203
▁84	-7204
▁89	-7205
▁91	-7206
▁AJ	-7207
▁Ab	-7208
▁DS	-7209
▁ED	-7210
▁IV	-7211
▁JH	-7212
▁Jo	-7213
▁Ke	-7214
▁MP	-7215
▁NI	-7216
▁RH	-7217
▁SH	-7218
▁Sm	-7219
▁Wu	-7220
▁XB	-7221
▁cm	-7222
▁ds	-7223
▁wr	-7224
-108	-7225
0.00	-7226
2012	-7227
72%)	-7228
Bank	-7229
Wein	-7230
akes	-7231
anty	-7232
asso	-7233
bras	-7234
care	-7235
cour	-7236
cued	-7237
dech	-7238
derg	-7239
disc	-7240
dule	-7241
enty	-7242
esse	-7243
fits	-7244
iber	-7245
ideo	-7246
imes	-7247
kira	-7248
lain	-7249
ocol	-7250
oded	-7251
onom	-7252
peut	-7253
sour	-7254
talk	-7255
wing	-7256
▁$18	-7257
▁$83	-7258
▁(10	-7259
▁(29	-7260
▁(36	-7261
▁(40	-7262
▁(5)	-7263
▁(9.	-7264
▁-19	-7265
▁-20	-7266
▁-29	-7267
▁0.1	-7268
▁10,	-7269
▁103	-7270
▁108	-7271
▁10−	-7272
▁12,	-7273
▁130	-7274
▁132	-7275
▁143	-7276
▁151	-7277
▁20,	-7278
▁27.	-7279
▁32.	-7280
▁412	-7281
▁448	-7282
▁45.	-7283
▁491	-7284
▁60%	-7285
▁600	-7286
▁Acc	-7287
▁BMC	-7288
▁Bar	-7289
▁Cle	-7290
▁Dis	-7291
▁Fam	-7292
▁GRP	-7293
▁Kin	-7294
▁Man	-7295
▁Mer	-7296
▁Pal	-7297
▁Pop	-7298
▁Roe	-7299
▁Rom	-7300
▁Rus	-7301
▁TCR	-7302
▁Tod	-7303
▁Wat	-7304
▁[23	-7305
▁age	-7306
▁bow	-7307
▁cru	-7308
▁ded	-7309
▁dia	-7310
▁dut	-7311
▁emb	-7312
▁esc	-7313
▁fly	-7314
▁hem	-7315
▁hit	-7316
▁inb	-7317
▁jun	-7318
▁nav	-7319
▁ple	-7320
▁pub	-7321
▁rad	-7322
▁ram	-7323
▁run	-7324
▁wid	-7325
472.8	-7326
Salic	-7327
agine	-7328
aired	-7329
akers	-7330
amber	-7331
anese	-7332
eding	-7333
endar	-7334
ensis	-7335
eting	-7336
gener	-7337
grade	-7338
green	-7339
ibler	-7340
igate	-7341
iling	-7342
ilson	-7343
inger	-7344
inted	-7345
ismal	-7346
istor	-7347
light	-7348
olden	-7349
onald	-7350
owell	-7351
phase	-7352
shift	-7353
stood	-7354
ville	-7355
▁$0.6	-7356
▁$1.7	-7357
▁$1.9	-7358
▁$102	-7359
▁$125	-7360
▁$13.	-7361
▁$154	-7362
▁$165	-7363
▁$2.4	-7364
▁$6.0	-7365
▁(11.	-7366
▁(12)	-7367
▁(14.	-7368
▁(340	-7369
▁1.5%	-7370
▁1030	-7371
▁1455	-7372
▁1942	-7373
▁1955	-7374
▁2023	-7375
▁2026	-7376
▁3369	-7377
▁3460	-7378
▁City	-7379
▁Clay	-7380
▁Feat	-7381
▁Gaza	-7382
▁Good	-7383
▁HeLa	-7384
▁Hind	-7385
▁Lead	-7386
▁Mall	-7387
▁Mich	-7388
▁Most	-7389
▁Neur	-7390
▁PHYL	-7391
▁Pict	-7392
▁Port	-7393
▁Refs	-7394
▁Tatt	-7395
▁Wang	-7396
▁actu	-7397
▁aoci	-7398
▁camp	-7399
▁dise	-7400
▁dram	-7401
▁eigh	-7402
▁ends	-7403
▁face	-7404
▁feas	-7405
▁fell	-7406
▁ferc	-7407
▁fine	-7408
▁gDNA	-7409
▁hope	-7410
▁kept	-7411
▁mart	-7412
▁ment	-7413
▁pEBB	-7414
▁page	-7415
▁perc	-7416
▁plot	-7417
▁rice	-7418
▁salv	-7419
▁shif	-7420
▁tell	-7421
▁weak	-7422
▁weed	-7423
▁west	-7424
▁wine	-7425
aching	-7426
apping	-7427
braska	-7428
chmark	-7429
demark	-7430
ergies	-7431
ession	-7432
ething	-7433
ferent	-7434
finite	-7435
hedule	-7436
herent	-7437
iderio	-7438
inrich	-7439
ortium	-7440
othera	-7441
ozdech	-7442
perial	-7443
riched	-7444
signal	-7445
stries	-7446
ternal	-7447
urosci	-7448
▁$1100	-7449
▁$115.	-7450
▁$67.8	-7451
▁$6823	-7452
▁(25%)	-7453
▁(30%)	-7454
▁(4%),	-7455
▁Again	-7456
▁Brain	-7457
▁Eisen	-7458
▁Folks	-7459
▁Frank	-7460
▁Golgi	-7461
▁Hardy	-7462
▁Labor	-7463
▁Model	-7464
▁Organ	-7465
▁Prior	-7466
▁Putin	-7467
▁Shome	-7468
▁South	-7469
▁Warne	-7470
▁Willi	-7471
▁Women	-7472
▁Xanth	-7473
▁Zhang	-7474
▁alter	-7475
▁anime	-7476
▁banks	-7477
▁chase	-7478
▁china	-7479
▁clade	-7480
▁color	-7481
▁comes	-7482
▁coord	-7483
▁doing	-7484
▁dsRNA	-7485
▁embry	-7486
▁fight	-7487
▁forfe	-7488
▁grown	-7489
▁infra	-7490
▁leave	-7491
▁means	-7492
▁mixed	-7493
▁mount	-7494
▁moved	-7495
▁mtDNA	-7496
▁peace	-7497
▁pound	-7498
▁royal	-7499
▁seeks	-7500
▁shell	-7501
▁solid	-7502
▁speed	-7503
▁spend	-7504
▁steel	-7505
▁title	-7506
▁tumor	-7507
▁video	-7508
▁virus	-7509
▁vital	-7510
▁withd	-7511
.000000	-7512
Gardner	-7513
Ramsden	-7514
awrence	-7515
biology	-7516
cellent	-7517
encoded	-7518
igenous	-7519
oinosit	-7520
onegawa	-7521
ordable	-7522
pacific	-7523
persing	-7524
taining	-7525
tsburgh	-7526
ularity	-7527
version	-7528
▁1994).	-7529
▁1997).	-7530
▁2001),	-7531
▁7.125%	-7532
▁Author	-7533
▁Edmund	-7534
▁Hardin	-7535
▁Indian	-7536
▁Lieber	-7537
▁Number	-7538
▁Romero	-7539
▁Senate	-7540
▁Spring	-7541
▁Theore	-7542
▁Though	-7543
▁allows	-7544
▁breaks	-7545
▁cancer	-7546
▁denied	-7547
▁dispos	-7548
▁enough	-7549
▁enrich	-7550
▁excise	-7551
▁fellow	-7552
▁forces	-7553
▁formed	-7554
▁humans	-7555
▁inform	-7556
▁intact	-7557
▁intend	-7558
▁ironcl	-7559
▁lowest	-7560
▁memory	-7561
▁pestis	-7562
▁phases	-7563
▁police	-7564
▁reconc	-7565
▁relief	-7566
▁reveal	-7567
▁solely	-7568
▁starts	-7569
▁surren	-7570
▁threat	-7571
▁trades	-7572
▁twenty	-7573
▁unlock	-7574
▁varies	-7575
Helfrich	-7576
Research	-7577
Weinberg	-7578
approxim	-7579
artments	-7580
ensitive	-7581
nowledge	-7582
osymbion	-7583
structed	-7584
▁Angeles	-7585
▁Authors	-7586
▁Captain	-7587
▁Central	-7588
▁Conflic	-7589
▁Mallory	-7590
▁October	-7591
▁Protein	-7592
▁actions	-7593
▁british	-7594
▁cascade	-7595
▁cloning	-7596
▁connect	-7597
▁conserv	-7598
▁convert	-7599
▁credits	-7600
▁crucial	-7601
▁damages	-7602
▁deficit	-7603
▁depends	-7604
▁destroy	-7605
▁diverse	-7606
▁dynamic	-7607
▁enables	-7608
▁enteric	-7609
▁evening	-7610
▁explore	-7611
▁growing	-7612
▁guanine	-7613
▁hedging	-7614
▁helping	-7615
▁kinderg	-7616
▁lenders	-7617
▁medical	-7618
▁netting	-7619
▁nonaxin	-7620
▁parties	-7621
▁primers	-7622
▁recruit	-7623
▁reorgan	-7624
▁sharing	-7625
▁stained	-7626
▁statute	-7627
▁stopped	-7628
▁synthet	-7629
▁vesting	-7630
▁weather	-7631
▁yielded	-7632
Copyright	-7633
confirmed	-7634
published	-7635
reciation	-7636
ustralian	-7637
▁(7.125%)	-7638
▁Activity	-7639
▁Agricult	-7640
▁Bacteria	-7641
▁Children	-7642
▁Complete	-7643
▁Gogarten	-7644
▁Governor	-7645
▁Nebraska	-7646
▁Neurosci	-7647
▁Parkhill	-7648
▁Tattnall	-7649
▁actually	-7650
▁adjacent	-7651
▁borrowed	-7652
▁changing	-7653
▁complain	-7654
▁concerns	-7655
▁coverage	-7656
▁database	-7657
▁degraded	-7658
▁deletion	-7659
▁election	-7660
▁enhanced	-7661
▁everyone	-7662
▁expanded	-7663
▁expiring	-7664
▁flanking	-7665
▁grouping	-7666
▁guidance	-7667
▁matching	-7668
▁mediated	-7669
▁modeling	-7670
▁ordering	-7671
▁organell	-7672
▁peptides	-7673
▁solution	-7674
▁supports	-7675
▁timeless	-7676
▁valuable	-7677
▁vehicles	-7678
otherapeut	-7679
regulation	-7680
stimulated	-7681
▁According	-7682
▁Copyright	-7683
▁Desiderio	-7684
▁Following	-7685
▁Gregorian	-7686
▁activated	-7687
▁benchmark	-7688
▁brazilian	-7689
▁compounds	-7690
▁conflicts	-7691
▁consumers	-7692
▁digitonin	-7693
▁excellent	-7694
▁exception	-7695
▁existence	-7696
▁explained	-7697
▁extensive	-7698
▁flintlock	-7699
▁gradually	-7700
▁haplotype	-7701
▁hierarchy	-7702
▁intermedi	-7703
▁milestone	-7704
▁numerical	-7705
▁objective	-7706
▁regularly	-7707
▁regulates	-7708
▁remainder	-7709
▁servicing	-7710
▁situation	-7711
▁something	-7712
▁stringent	-7713
▁submitted	-7714
▁summation	-7715
▁synergies	-7716
▁terminals	-7717
▁territory	-7718
▁trademark	-7719
trophozoite	-7720
vironmental	-7721
▁Collection	-7722
▁References	-7723
▁accelerate	-7724
▁bipartisan	-7725
▁capitalize	-7726
▁challenges	-7727
▁compliance	-7728
▁deductions	-7729
▁discretion	-7730
▁	-7731
e	-7732
t	-7733
a	-7734
i	-7735
n	-7736
o	-7737
s	-7738
r	-7739
l	-7740
c	-7741
d	-7742
h	-7743
u	-7744
m	-7745
p	-7746
f	-7747
g	-7748
y	-7749
b	-7750
.	-7751
0	-7752
1	-7753
w	-7754
v	-7755
2	-7756
,	-7757
3	-7758
k	-7759
9	-7760
-	-7761
x	-7762
5	-7763
)	-7764
(	-7765
|	-7766
4	-7767
6	-7768
8	-7769
A	-7770
7	-7771
S	-7772
$	-7773
T	-7774
C	-7775
R	-7776
P	-7777
q	-7778
I	-7779
D	-7780
B	-7781
N	-7782
F	-7783
M	-7784
%	-7785
z	-7786
G	-7787
L	-7788
j	-7789
E	-7790
H	-7791
W	-7792
:	-7793
J	-7794
=	-7795
;	-7796
O	-7797
/	-7798
@	-7799
?	-7800
'	-7801
K	-7802
β	-7803
U	-7804
V	-7805
–	-7806
’	-7807
"	-7808
—	-7809
&	-7810
Y	-7811
X	-7812
”	-7813
“	-7814
[	-7815
]	-7816
Z	-7817
−	-7818
